{"version":"1.0","truncation":null,"padding":null,"added_tokens":[{"id":0,"special":true,"content":"[PAD]","single_word":false,"lstrip":false,"rstrip":false,"normalized":false},{"id":1,"special":true,"content":"[UNK]","single_word":false,"lstrip":false,"rstrip":false,"normalized":false},{"id":2,"special":true,"content":"[CLS]","single_word":false,"lstrip":false,"rstrip":false,"normalized":false},{"id":3,"special":true,"content":"[SEP]","single_word":false,"lstrip":false,"rstrip":false,"normalized":false},{"id":4,"special":true,"content":"[MASK]","single_word":false,"lstrip":false,"rstrip":false,"normalized":false}],"normalizer":{"type":"BertNormalizer","clean_text":false,"handle_chinese_chars":false,"strip_accents":false,"lowercase":true},"pre_tokenizer":{"type":"BertPreTokenizer"},"post_processor":null,"decoder":{"type":"WordPiece","prefix":"##","cleanup":true},"model":{"type":"WordPiece","unk_token":"[UNK]","continuing_subword_prefix":"##","max_input_chars_per_word":100,"vocab":{"[PAD]":0,"[UNK]":1,"[CLS]":2,"[SEP]":3,"[MASK]":4,"!":5,",":6,".":7,"0":8,"1":9,"2":10,"3":11,"4":12,"5":13,"6":14,"7":15,"8":16,"9":17,"?":18,"a":19,"b":20,"c":21,"d":22,"e":23,"f":24,"g":25,"h":26,"i":27,"j":28,"k":29,"l":30,"m":31,"n":32,"o":33,"p":34,"q":35,"r":36,"s":37,"t":38,"u":39,"v":40,"w":41,"x":42,"y":43,"z":44,"º":45,"à":46,"á":47,"â":48,"ã":49,"ä":50,"æ":51,"ç":52,"è":53,"é":54,"ê":55,"ë":56,"ì":57,"í":58,"î":59,"ï":60,"ñ":61,"ò":62,"ó":63,"ô":64,"ö":65,"ù":66,"ú":67,"û":68,"ü":69,"ý":70,"ā":71,"ą":72,"ć":73,"č":74,"ē":75,"ę":76,"ī":77,"ł":78,"ń":79,"ō":80,"œ":81,"ś":82,"š":83,"ū":84,"ż":85,"ʾ":86,"ά":87,"έ":88,"η":89,"λ":90,"μ":91,"ο":92,"ς":93,"τ":94,"а":95,"д":96,"е":97,"л":98,"н":99,"р":100,"т":101,"у":102,"ы":103,"ا":104,"ة":105,"ر":106,"س":107,"ك":108,"ن":109,"و":110,"ی":111,"ἑ":112,"구":113,"여":114,"자":115,"친":116,"ﬂ":117,"##e":118,"##r":119,"##q":120,"##u":121,"##d":122,"##a":123,"##z":124,"##i":125,"##l":126,"##m":127,"##n":128,"##c":129,"##h":130,"##v":131,"##t":132,"##o":133,"##s":134,"##y":135,"##é":136,"##á":137,"##p":138,"##ó":139,"##f":140,"##j":141,"##g":142,"##b":143,"##í":144,"##x":145,"##k":146,"##ú":147,"##ñ":148,"##à":149,"##è":150,"##w":151,"##ü":152,"##ì":153,"##ò":154,"##0":155,"##4":156,"##ä":157,"##û":158,"##ç":159,"##8":160,"##ê":161,"##ł":162,"##5":163,"##ë":164,"##ô":165,"##î":166,"##ï":167,"##3":168,"##2":169,"##ā":170,"##ù":171,"##1":172,"##9":173,"##ö":174,"##â":175,"##ã":176,"##æ":177,"##ą":178,"##6":179,"##ē":180,"##л":181,"##т":182,"##ы":183,"##н":184,"##7":185,"##ę":186,"##е":187,"##ō":188,"##ý":189,"##œ":190,"##º":191,"##ʾ":192,"##ī":193,"##ż":194,"##λ":195,"##ά":196,"##ς":197,"##έ":198,"##η":199,"##τ":200,"##ο":201,"##р":202,"##д":203,"##а":204,"##س":205,"##و":206,"##ة":207,"##자":208,"##č":209,"##ć":210,"##š":211,"##ی":212,"##ر":213,"##ا":214,"##ن":215,"##ń":216,"##구":217,"##ś":218,"##ū":219,"##ue":220,"##er":221,"##en":222,"##as":223,"##os":224,"de":225,"##ar":226,"##an":227,"que":228,"es":229,"##or":230,"##on":231,"##es":232,"##do":233,"en":234,"el":235,"no":236,"la":237,"##al":238,"mi":239,"##ta":240,"##da":241,"##te":242,"##to":243,"me":244,"si":245,"un":246,"##ra":247,"##ci":248,"##re":249,"##om":250,"con":251,"##ui":252,"##lo":253,"lo":254,"se":255,"ha":256,"por":257,"##ti":258,"##ro":259,"##ri":260,"##go":261,"al":262,"##am":263,"te":264,"##ero":265,"so":266,"##in":267,"##un":268,"com":269,"tu":270,"##le":271,"##is":272,"##ando":273,"##ca":274,"##ien":275,"##la":276,"##ch":277,"##de":278,"qui":279,"##mp":280,"yo":281,"los":282,"##di":283,"to":284,"par":285,"vi":286,"##ón":287,"su":288,"##ab":289,"##que":290,"re":291,"##ás":292,"di":293,"cu":294,"##co":295,"como":296,"##ol":297,"##me":298,"est":299,"in":300,"des":301,"##us":302,"las":303,"##ma":304,"del":305,"##ía":306,"ti":307,"##tr":308,"pa":309,"##uer":310,"##vi":311,"##ce":312,"##ada":313,"una":314,"para":315,"pero":316,"ya":317,"##el":318,"##dos":319,"##oy":320,"mis":321,"ten":322,"##emp":323,"##ente":324,"##ap":325,"sin":326,"le":327,"##res":328,"ser":329,"más":330,"##ga":331,"##ent":332,"ni":333,"##mo":334,"##mos":335,"##dad":336,"##bi":337,"ver":338,"esc":339,"##ora":340,"ve":341,"per":342,"ma":343,"##tas":344,"pue":345,"pas":346,"esta":347,"##cer":348,"##tos":349,"##ces":350,"##uen":351,"##vo":352,"am":353,"soy":354,"##jo":355,"todo":356,"pi":357,"##ba":358,"##tar":359,"##tra":360,"an":361,"##das":362,"##li":363,"cuando":364,"hay":365,"##uch":366,"po":367,"vida":368,"solo":369,"esto":370,"son":371,"##pi":372,"co":373,"##za":374,"##ras":375,"as":376,"tan":377,"ll":378,"sab":379,"##tro":380,"cam":381,"##der":382,"ch":383,"sal":384,"##ve":385,"##án":386,"##qui":387,"##gu":388,"##tu":389,"na":390,"##bre":391,"va":392,"esp":393,"pu":394,"##ento":395,"##era":396,"##ción":397,"ap":398,"##cia":399,"##mi":400,"he":401,"##ues":402,"car":403,"##tes":404,"##si":405,"lle":406,"rap":407,"tra":408,"ca":409,"man":410,"cal":411,"ah":412,"##ué":413,"cre":414,"##ia":415,"##ran":416,"##se":417,"porque":418,"##cu":419,"pe":420,"ven":421,"##empre":422,"quiero":423,"##las":424,"hi":425,"ar":426,"tengo":427,"##ño":428,"siempre":429,"ex":430,"ci":431,"##uel":432,"nos":433,"##ter":434,"tú":435,"hab":436,"##ones":437,"quier":438,"mal":439,"##lar":440,"th":441,"este":442,"##mas":443,"##no":444,"pro":445,"##ten":446,"##tan":447,"##ado":448,"##én":449,"li":450,"##ren":451,"##pa":452,"dej":453,"##los":454,"##des":455,"##gar":456,"tien":457,"has":458,"##ver":459,"nada":460,"##lan":461,"ba":462,"##undo":463,"##fi":464,"##bo":465,"##pe":466,"can":467,"res":468,"cada":469,"##io":470,"##endo":471,"mas":472,"tiemp":473,"##tre":474,"pen":475,"sé":476,"##va":477,"fue":478,"dis":479,"##enti":480,"estoy":481,"qué":482,"mí":483,"##jos":484,"pre":485,"bus":486,"##unca":487,"##car":488,"##po":489,"##ris":490,"mar":491,"tus":492,"##ru":493,"##amos":494,"##tras":495,"nunca":496,"##uí":497,"tiempo":498,"hacer":499,"ne":500,"##so":501,"##ir":502,"mo":503,"mu":504,"eso":505,"don":506,"##cen":507,"bien":508,"rec":509,"##par":510,"ahora":511,"ro":512,"##quí":513,"cas":514,"##les":515,"mundo":516,"da":517,"##um":518,"##iendo":519,"está":520,"##dar":521,"ab":522,"##ing":523,"voy":524,"fal":525,"##den":526,"ri":527,"ac":528,"##gui":529,"hasta":530,"cor":531,"##ños":532,"imp":533,"así":534,"aquí":535,"pon":536,"amor":537,"sus":538,"bar":539,"the":540,"sue":541,"##ck":542,"##gas":543,"hoy":544,"vol":545,"##cas":546,"##cho":547,"much":548,"##ana":549,"bo":550,"escri":551,"aun":552,"##tal":553,"##con":554,"mej":555,"pri":556,"##ja":557,"##zón":558,"##zo":559,"ra":560,"pal":561,"##cio":562,"##die":563,"todos":564,"quien":565,"##tor":566,"entre":567,"##cos":568,"##rar":569,"hace":570,"##ble":571,"cora":572,"mejor":573,"##gan":574,"donde":575,"##ame":576,"##je":577,"fin":578,"día":579,"nadie":580,"##na":581,"##il":582,"lu":583,"vuel":584,"##per":585,"cos":586,"##can":587,"sa":588,"cab":589,"##ino":590,"##sa":591,"##ur":592,"##erda":593,"##ul":594,"##tros":595,"men":596,"##ías":597,"comp":598,"som":599,"vez":600,"eres":601,"##dio":602,"##gun":603,"##ano":604,"fi":605,"##uerte":606,"ol":607,"be":608,"os":609,"buen":610,"pens":611,"##ólo":612,"mira":613,"for":614,"mierda":615,"aunque":616,"senti":617,"ju":618,"##ña":619,"##ec":620,"cambi":621,"jo":622,"##che":623,"emp":624,"##idad":625,"desde":626,"val":627,"##por":628,"##ven":629,"algo":630,"her":631,"##ico":632,"fu":633,"##ión":634,"siento":635,"estar":636,"##ama":637,"ese":638,"corazón":639,"##be":640,"puedo":641,"##yo":642,"##uego":643,"##lla":644,"sólo":645,"##iento":646,"du":647,"sol":648,"gente":649,"dar":650,"##ío":651,"escuch":652,"veces":653,"##ona":654,"##dor":655,"deci":656,"##ros":657,"##ales":658,"##ena":659,"ho":660,"aca":661,"##ina":662,"cuen":663,"esa":664,"gan":665,"cie":666,"verdad":667,"dos":668,"pres":669,"gra":670,"otro":671,"olvi":672,"mor":673,"pla":674,"otra":675,"san":676,"##ún":677,"##mb":678,"##at":679,"pien":680,"vivi":681,"##eli":682,"##van":683,"tiene":684,"les":685,"fr":686,"##ciones":687,"##ya":688,"##entro":689,"quieres":690,"nues":691,"##gue":692,"##olor":693,"nue":694,"##dan":695,"##ito":696,"real":697,"##llo":698,"##dr":699,"mon":700,"cono":701,"gu":702,"##zar":703,"cara":704,"esper":705,"##du":706,"hom":707,"##cha":708,"vis":709,"you":710,"cer":711,"pare":712,"mie":713,"##tin":714,"##gos":715,"pol":716,"sabes":717,"fa":718,"recuer":719,"pr":720,"##ber":721,"sigo":722,"go":723,"hago":724,"mismo":725,"tam":726,"##ne":727,"somos":728,"tanto":729,"gus":730,"##ke":731,"ay":732,"##cias":733,"##it":734,"##encia":735,"##eza":736,"ins":737,"##fer":738,"vo":739,"gran":740,"##cion":741,"ojos":742,"alma":743,"có":744,"quién":745,"igu":746,"palab":747,"vas":748,"##mbre":749,"puta":750,"llam":751,"puede":752,"cuer":753,"apren":754,"impor":755,"agu":756,"mien":757,"calle":758,"ella":759,"sh":760,"tienes":761,"mientras":762,"##dre":763,"mil":764,"##emos":765,"menos":766,"van":767,"##aba":768,"era":769,"##rio":770,"vivo":771,"vivir":772,"queda":773,"sobre":774,"dios":775,"pues":776,"antes":777,"fe":778,"##bar":779,"##ni":780,"##ono":781,"##una":782,"##dido":783,"miedo":784,"mue":785,"mucho":786,"cosas":787,"mom":788,"plan":789,"dentro":790,"gri":791,"cual":792,"sí":793,"##entes":794,"##ido":795,"##arme":796,"igual":797,"har":798,"##tando":799,"volver":800,"##gra":801,"pasa":802,"aque":803,"ob":804,"veo":805,"##ciendo":806,"cielo":807,"##iste":808,"quieren":809,"poco":810,"##igo":811,"muer":812,"exp":813,"pes":814,"##vos":815,"hu":816,"llor":817,"pers":818,"##cil":819,"tener":820,"##enta":821,"##ere":822,"ir":823,"##man":824,"camino":825,"##ala":826,"##dí":827,"uno":828,"fuera":829,"ves":830,"##ami":831,"ter":832,"feli":833,"##ah":834,"neces":835,"##arte":836,"##ándo":837,"tal":838,"prim":839,"##erto":840,"do":841,"bes":842,"segui":843,"vien":844,"##eno":845,"quer":846,"##ante":847,"decir":848,"##tigo":849,"##tad":850,"##gi":851,"din":852,"##ste":853,"sea":854,"noche":855,"desp":856,"##nos":857,"##jer":858,"tar":859,"my":860,"int":861,"mente":862,"han":863,"##gre":864,"##bra":865,"cons":866,"contra":867,"muy":868,"cómo":869,"mú":870,"bas":871,"all":872,"wh":873,"##cando":874,"##zas":875,"and":876,"poder":877,"##tir":878,"##ge":879,"puedes":880,"##ores":881,"luego":882,"##cuen":883,"luch":884,"##trás":885,"dolor":886,"##orm":887,"músi":888,"mic":889,"casa":890,"flo":891,"##erra":892,"dime":893,"##migo":894,"fuer":895,"falta":896,"##ario":897,"final":898,"deja":899,"it":900,"dejar":901,"his":902,"estás":903,"fl":904,"##cto":905,"cul":906,"pis":907,"creo":908,"##tien":909,"##ut":910,"##és":911,"##fec":912,"paso":913,"mañ":914,"saber":915,"música":916,"##et":917,"chi":918,"digo":919,"inter":920,"dinero":921,"pier":922,"tran":923,"quiere":924,"##alo":925,"esti":926,"toda":927,"lado":928,"cap":929,"palabras":930,"rom":931,"##tri":932,"or":933,"ellos":934,"##bién":935,"##llas":936,"sabe":937,"suen":938,"fol":939,"dem":940,"##pero":941,"pan":942,"##bajo":943,"##eta":944,"##trar":945,"sentir":946,"##ll":947,"están":948,"años":949,"##eo":950,"fui":951,"luz":952,"##jas":953,"##éis":954,"algun":955,"##var":956,"##eron":957,"dicen":958,"##ay":959,"nuevo":960,"mañana":961,"reg":962,"bri":963,"due":964,"ban":965,"##unto":966,"pensar":967,"on":968,"hor":969,"##ios":970,"##ves":971,"##dia":972,"mc":973,"hip":974,"también":975,"##gri":976,"pregun":977,"menti":978,"##len":979,"rep":980,"ta":981,"perder":982,"histor":983,"cr":984,"sangre":985,"##tado":986,"##im":987,"clar":988,"##vas":989,"pap":990,"##ida":991,"cru":992,"##jar":993,"##vis":994,"perd":995,"##com":996,"##tura":997,"##tico":998,"seguir":999,"conmigo":1000,"proble":1001,"pienso":1002,"barrio":1003,"ale":1004,"momento":1005,"pin":1006,"bajo":1007,"hablar":1008,"estas":1009,"estu":1010,"of":1011,"esos":1012,"bor":1013,"##cado":1014,"dan":1015,"cabeza":1016,"conf":1017,"suf":1018,"haciendo":1019,"pos":1020,"encon":1021,"##ed":1022,"muerte":1023,"tom":1024,"##para":1025,"manos":1026,"mano":1027,"escribo":1028,"##ine":1029,"##zco":1030,"ent":1031,"hombre":1032,"pasado":1033,"##mente":1034,"##bas":1035,"ye":1036,"##iente":1037,"fuego":1038,"gusta":1039,"boca":1040,"fo":1041,"será":1042,"##rando":1043,"##ias":1044,"cuerpo":1045,"inf":1046,"sueño":1047,"tras":1048,"levan":1049,"tris":1050,"##esta":1051,"sueños":1052,"##risa":1053,"##bir":1054,"##gen":1055,"pasar":1056,"ai":1057,"cualqui":1058,"##gro":1059,"cri":1060,"##udad":1061,"voz":1062,"días":1063,"importa":1064,"bueno":1065,"esca":1066,"##rá":1067,"##ye":1068,"loco":1069,"aquel":1070,"ahí":1071,"##entos":1072,"ciudad":1073,"juego":1074,"##lti":1075,"##ués":1076,"nombre":1077,"paz":1078,"odio":1079,"sen":1080,"##otros":1081,"contigo":1082,"##ches":1083,"##lus":1084,"##zos":1085,"au":1086,"vamos":1087,"##pas":1088,"dice":1089,"guar":1090,"respe":1091,"feliz":1092,"todas":1093,"cua":1094,"##bes":1095,"soñ":1096,"guer":1097,"##ara":1098,"llega":1099,"llegar":1100,"ami":1101,"forma":1102,"niño":1103,"##tante":1104,"estilo":1105,"##eros":1106,"##ita":1107,"##pon":1108,"sigue":1109,"ning":1110,"##erno":1111,"jam":1112,"ton":1113,"hue":1114,"puer":1115,"##gh":1116,"llevo":1117,"bol":1118,"hacia":1119,"##cor":1120,"otros":1121,"piel":1122,"cuenta":1123,"fuerte":1124,"##fe":1125,"ganas":1126,"##dir":1127,"lí":1128,"##ís":1129,"##ale":1130,"empe":1131,"demas":1132,"##men":1133,"##tivo":1134,"lejos":1135,"él":1136,"cla":1137,"##miento":1138,"##anza":1139,"espe":1140,"ense":1141,"encuen":1142,"micro":1143,"##guien":1144,"##anto":1145,"lá":1146,"op":1147,"##ban":1148,"gol":1149,"jus":1150,"dro":1151,"parte":1152,"morir":1153,"herm":1154,"nu":1155,"bai":1156,"espa":1157,"estamos":1158,"hacen":1159,"ad":1160,"aún":1161,"mujer":1162,"futu":1163,"##cios":1164,"triste":1165,"##tis":1166,"estre":1167,"cris":1168,"##cido":1169,"ima":1170,"##ientos":1171,"papel":1172,"puto":1173,"lugar":1174,"gi":1175,"##eras":1176,"tienen":1177,"##fa":1178,"##tiendo":1179,"claro":1180,"saben":1181,"suelo":1182,"mes":1183,"dé":1184,"sig":1185,"alguien":1186,"##th":1187,"##ion":1188,"##ty":1189,"escon":1190,"después":1191,"tri":1192,"realidad":1193,"sale":1194,"##ie":1195,"##ónde":1196,"recor":1197,"arri":1198,"##cí":1199,"##tica":1200,"libre":1201,"bal":1202,"##sos":1203,"tierra":1204,"##entar":1205,"##cre":1206,"amar":1207,"cui":1208,"flow":1209,"cha":1210,"tarde":1211,"futuro":1212,"##ista":1213,"historia":1214,"##lando":1215,"aire":1216,"salir":1217,"##tido":1218,"cambiar":1219,"tor":1220,"dejo":1221,"is":1222,"##ár":1223,"##cial":1224,"nuestro":1225,"##pues":1226,"buscando":1227,"recuerdo":1228,"##don":1229,"##mor":1230,"##mar":1231,"apar":1232,"col":1233,"enci":1234,"dónde":1235,"##dri":1236,"ce":1237,"fan":1238,"ja":1239,"doy":1240,"busca":1241,"bi":1242,"##nu":1243,"cole":1244,"rit":1245,"cur":1246,"##gando":1247,"madre":1248,"fá":1249,"muchos":1250,"mus":1251,"conse":1252,"vie":1253,"super":1254,"cues":1255,"atrás":1256,"jun":1257,"cama":1258,"person":1259,"mirar":1260,"##bres":1261,"escu":1262,"podr":1263,"oscu":1264,"##cía":1265,"af":1266,"despi":1267,"##tino":1268,"chu":1269,"disf":1270,"##gún":1271,"demasia":1272,"prom":1273,"ele":1274,"equi":1275,"hecho":1276,"ech":1277,"suerte":1278,"##pen":1279,"##ñas":1280,"ref":1281,"blan":1282,"chico":1283,"we":1284,"##gin":1285,"##nas":1286,"##min":1287,"siendo":1288,"##amili":1289,"##grimas":1290,"asi":1291,"pongo":1292,"contro":1293,"culo":1294,"##xi":1295,"hum":1296,"##erte":1297,"cl":1298,"ru":1299,"pena":1300,"famili":1301,"tres":1302,"er":1303,"suena":1304,"gas":1305,"##cal":1306,"lar":1307,"##bro":1308,"coño":1309,"hermano":1310,"oh":1311,"tr":1312,"visto":1313,"hablo":1314,"suel":1315,"##uelo":1316,"fras":1317,"ayer":1318,"canción":1319,"vale":1320,"llama":1321,"cabr":1322,"##uela":1323,"prin":1324,"olvidar":1325,"conci":1326,"hijo":1327,"##cep":1328,"##via":1329,"##amente":1330,"parece":1331,"rev":1332,"color":1333,"der":1334,"quiz":1335,"##able":1336,"##ques":1337,"##cción":1338,"##té":1339,"entien":1340,"respi":1341,"perdi":1342,"letras":1343,"camin":1344,"vues":1345,"propi":1346,"hop":1347,"joder":1348,"fun":1349,"ren":1350,"bab":1351,"eh":1352,"malo":1353,"that":1354,"fácil":1355,"busco":1356,"silen":1357,"dame":1358,"quedar":1359,"medio":1360,"persona":1361,"volar":1362,"habi":1363,"##zon":1364,"##porque":1365,"tro":1366,"mere":1367,"señ":1368,"cuento":1369,"dor":1370,"jamás":1371,"casi":1372,"##bu":1373,"bom":1374,"##rado":1375,"razón":1376,"luna":1377,"difer":1378,"viene":1379,"arriba":1380,"##ha":1381,"segu":1382,"acer":1383,"sufri":1384,"perdido":1385,"liber":1386,"esas":1387,"acabar":1388,"jue":1389,"##cuando":1390,"unos":1391,"yeah":1392,"problemas":1393,"enten":1394,"##ían":1395,"cualquier":1396,"tranqui":1397,"dia":1398,"def":1399,"at":1400,"invi":1401,"##ho":1402,"##cri":1403,"grande":1404,"amigos":1405,"siente":1406,"duro":1407,"##ría":1408,"##ger":1409,"ritmo":1410,"via":1411,"mirada":1412,"bu":1413,"ocu":1414,"gor":1415,"medi":1416,"##ín":1417,"pensando":1418,"agua":1419,"horas":1420,"exis":1421,"##dy":1422,"sho":1423,"fra":1424,"fum":1425,"clas":1426,"arre":1427,"fuck":1428,"buscar":1429,"peque":1430,"atra":1431,"niños":1432,"esqui":1433,"contar":1434,"pueden":1435,"cien":1436,"##ándome":1437,"ga":1438,"nuestra":1439,"##ormal":1440,"ley":1441,"abra":1442,"espera":1443,"enf":1444,"estos":1445,"##vor":1446,"ide":1447,"##ey":1448,"##ible":1449,"like":1450,"##áis":1451,"ayu":1452,"##apa":1453,"gracias":1454,"haz":1455,"infi":1456,"necesito":1457,"##ientes":1458,"llen":1459,"##sión":1460,"guerra":1461,"##viendo":1462,"##ismo":1463,"destino":1464,"familia":1465,"adi":1466,"gen":1467,"perfec":1468,"dormi":1469,"##nico":1470,"##esto":1471,"##gua":1472,"bon":1473,"tí":1474,"##val":1475,"##diendo":1476,"estaba":1477,"ros":1478,"##gn":1479,"##ciente":1480,"pie":1481,"vuelve":1482,"eter":1483,"uni":1484,"##éndo":1485,"compar":1486,"bro":1487,"trabajo":1488,"##llos":1489,"miro":1490,"##lico":1491,"cans":1492,"viento":1493,"##gado":1494,"nosotros":1495,"últi":1496,"tantas":1497,"punto":1498,"enga":1499,"##oma":1500,"escribir":1501,"pl":1502,"único":1503,"prof":1504,"obs":1505,"comer":1506,"bra":1507,"##lado":1508,"may":1509,"hacerlo":1510,"ego":1511,"##ea":1512,"acaba":1513,"up":1514,"##tengo":1515,"##como":1516,"algún":1517,"mala":1518,"pus":1519,"##pos":1520,"##gia":1521,"##ír":1522,"demasiado":1523,"rui":1524,"##qué":1525,"matar":1526,"##tud":1527,"silencio":1528,"##ré":1529,"far":1530,"##tó":1531,"##cel":1532,"existe":1533,"mam":1534,"vengo":1535,"piens":1536,"bel":1537,"come":1538,"desper":1539,"espero":1540,"##cta":1541,"rey":1542,"respeto":1543,"simp":1544,"dijo":1545,"enseñ":1546,"##ura":1547,"##tio":1548,"abri":1549,"##ly":1550,"##erta":1551,"misma":1552,"calma":1553,"puerta":1554,"fama":1555,"##biendo":1556,"frente":1557,"escucha":1558,"disfru":1559,"sido":1560,"##tur":1561,"duele":1562,"gar":1563,"##jes":1564,"verte":1565,"cuel":1566,"##cti":1567,"caer":1568,"gui":1569,"##dado":1570,"##tru":1571,"querer":1572,"haces":1573,"oro":1574,"##ior":1575,"ilus":1576,"buena":1577,"pá":1578,"##ondo":1579,"sonrisa":1580,"apa":1581,"normal":1582,"tema":1583,"##chos":1584,"temp":1585,"##idas":1586,"##for":1587,"amigo":1588,"personas":1589,"distin":1590,"muerto":1591,"encontrar":1592,"##bios":1593,"estado":1594,"detrás":1595,"llorar":1596,"cen":1597,"primero":1598,"hice":1599,"##ght":1600,"envi":1601,"ante":1602,"corre":1603,"##iones":1604,"refle":1605,"##pu":1606,"llevar":1607,"hizo":1608,"cosa":1609,"arte":1610,"tenemos":1611,"rol":1612,"pone":1613,"##00":1614,"vive":1615,"vaya":1616,"len":1617,"dire":1618,"##usa":1619,"crees":1620,"your":1621,"mío":1622,"encima":1623,"##cidad":1624,"libertad":1625,"cump":1626,"bla":1627,"pel":1628,"lágrimas":1629,"habla":1630,"##hi":1631,"espal":1632,"calor":1633,"movi":1634,"##mientos":1635,"cuán":1636,"pase":1637,"##entas":1638,"pasta":1639,"err":1640,"ben":1641,"dra":1642,"##ér":1643,"hora":1644,"##ica":1645,"love":1646,"sex":1647,"ata":1648,"cin":1649,"sole":1650,"prefi":1651,"parar":1652,"dif":1653,"rimas":1654,"##zan":1655,"nor":1656,"disco":1657,"kno":1658,"sir":1659,"##one":1660,"duer":1661,"##ental":1662,"dando":1663,"compa":1664,"extra":1665,"vuelvo":1666,"sentido":1667,"quedan":1668,"##riendo":1669,"fir":1670,"die":1671,"hijos":1672,"##pes":1673,"mer":1674,"tele":1675,"fuerza":1676,"##ctor":1677,"inten":1678,"aqui":1679,"noches":1680,"poner":1681,"recuerdos":1682,"pies":1683,"cari":1684,"cambio":1685,"em":1686,"rela":1687,"pele":1688,"got":1689,"presente":1690,"enfer":1691,"lleva":1692,"rape":1693,"##ill":1694,"##cipi":1695,"aman":1696,"culpa":1697,"know":1698,"##onces":1699,"hici":1700,"##chas":1701,"##elo":1702,"vac":1703,"quieras":1704,"droga":1705,"alto":1706,"encuentro":1707,"##anos":1708,"infierno":1709,"poli":1710,"##ton":1711,"##bos":1712,"versos":1713,"baby":1714,"traigo":1715,"odi":1716,"##yas":1717,"sientes":1718,"negro":1719,"mol":1720,"rab":1721,"##tarme":1722,"##ka":1723,"##tera":1724,"convi":1725,"demás":1726,"tuve":1727,"##cero":1728,"canciones":1729,"valor":1730,"je":1731,"orgu":1732,"##poco":1733,"pido":1734,"##cada":1735,"intento":1736,"fren":1737,"frío":1738,"quizás":1739,"sur":1740,"tin":1741,"palabra":1742,"labios":1743,"seg":1744,"escuchar":1745,"repres":1746,"vuelto":1747,"resto":1748,"déj":1749,"dom":1750,"sor":1751,"auto":1752,"má":1753,"##id":1754,"aguan":1755,"soledad":1756,"tre":1757,"traba":1758,"hablan":1759,"pun":1760,"sub":1761,"##ós":1762,"consi":1763,"##tón":1764,"##ith":1765,"padre":1766,"##rí":1767,"##lor":1768,"tes":1769,"mentira":1770,"vos":1771,"cuan":1772,"##ki":1773,"entra":1774,"##coh":1775,"cuatro":1776,"reci":1777,"dep":1778,"##lidad":1779,"peor":1780,"tantos":1781,"##pan":1782,"segundo":1783,"##dando":1784,"dije":1785,"tampoco":1786,"mía":1787,"canto":1788,"fondo":1789,"hambre":1790,"mama":1791,"blanco":1792,"##día":1793,"puro":1794,"compren":1795,"soñar":1796,"ag":1797,"gru":1798,"juro":1799,"esperanza":1800,"lis":1801,"##ete":1802,"calles":1803,"venga":1804,"##mon":1805,"##fo":1806,"##all":1807,"##lica":1808,"cuar":1809,"placer":1810,"##cie":1811,"haber":1812,"olvido":1813,"##tación":1814,"favor":1815,"sent":1816,"mata":1817,"llena":1818,"entonces":1819,"cho":1820,"empezar":1821,"haga":1822,"quiera":1823,"manera":1824,"br":1825,"espalda":1826,"ama":1827,"primera":1828,"toca":1829,"coj":1830,"##nica":1831,"allí":1832,"piensa":1833,"simple":1834,"##ecer":1835,"##vía":1836,"dispar":1837,"us":1838,"##eto":1839,"creer":1840,"ganar":1841,"cerca":1842,"chica":1843,"##ad":1844,"das":1845,"dese":1846,"momentos":1847,"dedi":1848,"enam":1849,"daño":1850,"lan":1851,"##dena":1852,"with":1853,"##und":1854,"##pido":1855,"##tel":1856,"tendr":1857,"sacar":1858,"evi":1859,"capa":1860,"tren":1861,"##uno":1862,"what":1863,"confi":1864,"esperando":1865,"alcoh":1866,"delante":1867,"##ución":1868,"quedo":1869,"muchas":1870,"cabrón":1871,"llev":1872,"caso":1873,"##ese":1874,"this":1875,"vienen":1876,"mé":1877,"frases":1878,"cristal":1879,"fiesta":1880,"herman":1881,"tío":1882,"##gel":1883,"mucha":1884,"##ts":1885,"##ablo":1886,"gris":1887,"golpe":1888,"fre":1889,"rum":1890,"conver":1891,"niña":1892,"perdón":1893,"alcan":1894,"quise":1895,"tocar":1896,"borra":1897,"sitio":1898,"descon":1899,"mensa":1900,"ene":1901,"sali":1902,"mill":1903,"one":1904,"pren":1905,"##ko":1906,"esf":1907,"##pira":1908,"pron":1909,"allá":1910,"entender":1911,"salgo":1912,"tanta":1913,"aho":1914,"##arios":1915,"peli":1916,"##dose":1917,"hemos":1918,"saco":1919,"jugar":1920,"##vol":1921,"##ticos":1922,"trans":1923,"lengua":1924,"alguna":1925,"clase":1926,"fli":1927,"##zando":1928,"##ocu":1929,"cuanto":1930,"blo":1931,"##antes":1932,"##blo":1933,"verso":1934,"humo":1935,"pueda":1936,"pelo":1937,"mirando":1938,"sino":1939,"##culo":1940,"fiel":1941,"mayor":1942,"huevos":1943,"##aste":1944,"seguro":1945,"lleno":1946,"problema":1947,"avan":1948,"##isa":1949,"besos":1950,"mos":1951,"hablando":1952,"conozco":1953,"flu":1954,"den":1955,"pagar":1956,"madri":1957,"vent":1958,"suda":1959,"algunos":1960,"ade":1961,"minu":1962,"entr":1963,"##tancia":1964,"##yendo":1965,"debo":1966,"lucha":1967,"luchar":1968,"nena":1969,"creen":1970,"bote":1971,"aprender":1972,"cuello":1973,"tira":1974,"##itas":1975,"entiendo":1976,"emb":1977,"ron":1978,"##ria":1979,"tuyo":1980,"comple":1981,"wan":1982,"##dres":1983,"##dores":1984,"ras":1985,"alcohol":1986,"##jan":1987,"encan":1988,"az":1989,"##he":1990,"##alla":1991,"estrellas":1992,"dormir":1993,"##aron":1994,"pasión":1995,"principi":1996,"##ase":1997,"alas":1998,"despe":1999,"ke":2000,"##nes":2001,"##oo":2002,"##ers":2003,"enter":2004,"pobre":2005,"perro":2006,"mitad":2007,"estan":2008,"lleg":2009,"olvida":2010,"nueva":2011,"quema":2012,"##oro":2013,"##ome":2014,"difí":2015,"año":2016,"##ece":2017,"rá":2018,"##tí":2019,"rima":2020,"llaman":2021,"españa":2022,"ori":2023,"##vel":2024,"##mina":2025,"pecho":2026,"bil":2027,"##ini":2028,"inc":2029,"##esa":2030,"polla":2031,"exper":2032,"sui":2033,"dura":2034,"##tua":2035,"beso":2036,"mentiras":2037,"##rer":2038,"##mba":2039,"dices":2040,"pierdo":2041,"##zones":2042,"conta":2043,"había":2044,"vuelta":2045,"conocer":2046,"##ompa":2047,"salida":2048,"preocu":2049,"##ali":2050,"beat":2051,"hun":2052,"pul":2053,"espejo":2054,"perdí":2055,"vacío":2056,"##ud":2057,"arma":2058,"veneno":2059,"brin":2060,"seré":2061,"ando":2062,"putas":2063,"##mes":2064,"sola":2065,"aleg":2066,"aten":2067,"otras":2068,"cambia":2069,"##char":2070,"money":2071,"##bol":2072,"sob":2073,"che":2074,"##mento":2075,"##sta":2076,"##aban":2077,"##bles":2078,"maldi":2079,"juntos":2080,"huel":2081,"pocos":2082,"muero":2083,"bur":2084,"ey":2085,"##rica":2086,"vir":2087,"pied":2088,"amo":2089,"tiro":2090,"##dera":2091,"##cura":2092,"esté":2093,"##tina":2094,"precio":2095,"rabia":2096,"##tion":2097,"##vio":2098,"trai":2099,"muere":2100,"difícil":2101,"##ví":2102,"madrid":2103,"abi":2104,"sup":2105,"char":2106,"respon":2107,"sombra":2108,"modo":2109,"cojones":2110,"acep":2111,"##turas":2112,"##aa":2113,"##lu":2114,"##ben":2115,"pasan":2116,"heridas":2117,"prefiero":2118,"##oso":2119,"##tener":2120,"shit":2121,"interior":2122,"cuesta":2123,"##jero":2124,"##gina":2125,"malos":2126,"abajo":2127,"hon":2128,"nie":2129,"##llar":2130,"abs":2131,"fracas":2132,"hermanos":2133,"##tivos":2134,"get":2135,"cualquiera":2136,"escapar":2137,"##ieza":2138,"secre":2139,"grandes":2140,"puesto":2141,"##tate":2142,"sube":2143,"primo":2144,"líne":2145,"viejo":2146,"##tamos":2147,"viendo":2148,"iba":2149,"quería":2150,"ningún":2151,"parti":2152,"but":2153,"fres":2154,"ki":2155,"##todo":2156,"pronto":2157,"ropa":2158,"hombres":2159,"##yec":2160,"##gio":2161,"##rame":2162,"quisi":2163,"escla":2164,"llego":2165,"junto":2166,"consegui":2167,"aprendí":2168,"##wn":2169,"##ridad":2170,"##port":2171,"##ró":2172,"impos":2173,"imagin":2174,"univer":2175,"##use":2176,"##ál":2177,"pueblo":2178,"pesa":2179,"equivo":2180,"bru":2181,"limp":2182,"felicidad":2183,"##ic":2184,"arrep":2185,"vino":2186,"obser":2187,"##cina":2188,"habrá":2189,"roto":2190,"hard":2191,"##vent":2192,"temas":2193,"recuerda":2194,"bit":2195,"aban":2196,"corazon":2197,"recordar":2198,"##mando":2199,"##ció":2200,"verme":2201,"oí":2202,"vuelo":2203,"ciego":2204,"mami":2205,"##rán":2206,"serio":2207,"sobra":2208,"anda":2209,"hacemos":2210,"play":2211,"fri":2212,"##etas":2213,"cola":2214,"ign":2215,"cierto":2216,"acti":2217,"##ula":2218,"país":2219,"##ús":2220,"tonto":2221,"pequeño":2222,"parque":2223,"##enten":2224,"humi":2225,"##son":2226,"##rate":2227,"##inas":2228,"haya":2229,"primer":2230,"única":2231,"vidas":2232,"diferente":2233,"talento":2234,"##demos":2235,"ever":2236,"##lle":2237,"carne":2238,"demon":2239,"digas":2240,"tos":2241,"##gada":2242,"salva":2243,"mamá":2244,"tex":2245,"base":2246,"peso":2247,"##elos":2248,"viol":2249,"cura":2250,"fantas":2251,"##ple":2252,"pura":2253,"empieza":2254,"gana":2255,"##ancia":2256,"tranquilo":2257,"encontr":2258,"torm":2259,"##dal":2260,"emo":2261,"##hh":2262,"descan":2263,"sentimientos":2264,"llora":2265,"vista":2266,"conciencia":2267,"amb":2268,"buenos":2269,"desnu":2270,"rar":2271,"escen":2272,"cere":2273,"dol":2274,"oye":2275,"##tencia":2276,"engañ":2277,"malas":2278,"desi":2279,"hier":2280,"rin":2281,"##dida":2282,"tiempos":2283,"nuestros":2284,"##mis":2285,"letra":2286,"fueron":2287,"cero":2288,"dale":2289,"##ds":2290,"ago":2291,"min":2292,"señor":2293,"##chi":2294,"mujeres":2295,"nota":2296,"cae":2297,"nar":2298,"##mer":2299,"ayuda":2300,"##remos":2301,"##hoy":2302,"##ok":2303,"##boy":2304,"mental":2305,"mueve":2306,"cruz":2307,"memor":2308,"buscan":2309,"envidia":2310,"sufi":2311,"déjame":2312,"nig":2313,"expres":2314,"rollo":2315,"mensaje":2316,"viviendo":2317,"darte":2318,"pesar":2319,"echar":2320,"bre":2321,"##tú":2322,"##tran":2323,"anti":2324,"ali":2325,"##hop":2326,"##ertos":2327,"##vir":2328,"##apar":2329,"llu":2330,"perfecto":2331,"##gros":2332,"penas":2333,"##cida":2334,"##tia":2335,"just":2336,"cuarto":2337,"##có":2338,"deber":2339,"##tá":2340,"##jando":2341,"callar":2342,"pensam":2343,"orgullo":2344,"paro":2345,"dile":2346,"##bia":2347,"respues":2348,"now":2349,"##tada":2350,"sincero":2351,"crecer":2352,"largo":2353,"miles":2354,"compe":2355,"provo":2356,"foto":2357,"##idos":2358,"##lig":2359,"poes":2360,"empie":2361,"vosotros":2362,"gal":2363,"##uf":2364,"##ky":2365,"seas":2366,"diablo":2367,"tenía":2368,"sonido":2369,"tru":2370,"batal":2371,"propio":2372,"##eres":2373,"relo":2374,"tenga":2375,"##olo":2376,"##uir":2377,"indi":2378,"##tarte":2379,"coche":2380,"ninguna":2381,"##má":2382,"ases":2383,"##ps":2384,"demos":2385,"dio":2386,"produ":2387,"mejores":2388,"saca":2389,"inspira":2390,"##vales":2391,"mad":2392,"pasos":2393,"dudas":2394,"todavía":2395,"estrella":2396,"ventana":2397,"debe":2398,"sería":2399,"##lante":2400,"discu":2401,"acompa":2402,"##bla":2403,"##abas":2404,"diga":2405,"tipo":2406,"pedir":2407,"aquellos":2408,"dedos":2409,"andar":2410,"##ám":2411,"sentimiento":2412,"marca":2413,"vueltas":2414,"nuestras":2415,"muertos":2416,"sensa":2417,"lento":2418,"salen":2419,"apoy":2420,"drama":2421,"dul":2422,"##dé":2423,"míos":2424,"escrito":2425,"entero":2426,"entrar":2427,"locura":2428,"sexo":2429,"lla":2430,"án":2431,"acos":2432,"bille":2433,"##illa":2434,"dere":2435,"edu":2436,"##tame":2437,"intent":2438,"when":2439,"wor":2440,"##gía":2441,"juz":2442,"acab":2443,"sá":2444,"##fono":2445,"dec":2446,"rato":2447,"nubes":2448,"out":2449,"sopor":2450,"track":2451,"##tales":2452,"flor":2453,"fuiste":2454,"criti":2455,"fer":2456,"ino":2457,"persi":2458,"ofre":2459,"control":2460,"sirve":2461,"enca":2462,"sabor":2463,"moda":2464,"acuer":2465,"##omo":2466,"termin":2467,"beber":2468,"despierto":2469,"##bri":2470,"raperos":2471,"peña":2472,"boli":2473,"cariño":2474,"pra":2475,"siste":2476,"sufrir":2477,"senta":2478,"##dis":2479,"##illo":2480,"intentar":2481,"##gamos":2482,"verás":2483,"motivo":2484,"agra":2485,"anim":2486,"ponte":2487,"cansado":2488,"##vuel":2489,"digan":2490,"ideas":2491,"humano":2492,"gir":2493,"##ig":2494,"segun":2495,"prue":2496,"##lum":2497,"deseo":2498,"grupo":2499,"pú":2500,"##tiva":2501,"arro":2502,"colegas":2503,"##éndome":2504,"capaz":2505,"cli":2506,"##cón":2507,"escribiendo":2508,"enfr":2509,"##catri":2510,"abre":2511,"pide":2512,"hiphop":2513,"ocul":2514,"##bras":2515,"coca":2516,"especial":2517,"compañ":2518,"planeta":2519,"show":2520,"errores":2521,"##ther":2522,"cicatri":2523,"avis":2524,"##blico":2525,"encer":2526,"hagas":2527,"back":2528,"##enas":2529,"trae":2530,"esperar":2531,"ignor":2532,"##dó":2533,"##ciar":2534,"suficiente":2535,"dado":2536,"ví":2537,"magia":2538,"caen":2539,"mani":2540,"recono":2541,"explo":2542,"flores":2543,"##tiene":2544,"fran":2545,"oport":2546,"cumpli":2547,"##sas":2548,"##telo":2549,"##quiero":2550,"conoce":2551,"centro":2552,"##bido":2553,"artis":2554,"cabe":2555,"escupo":2556,"habitación":2557,"rápido":2558,"vine":2559,"##uma":2560,"##ctos":2561,"exc":2562,"lluvia":2563,"polvo":2564,"aprende":2565,"toma":2566,"imposible":2567,"##ron":2568,"##lam":2569,"historias":2570,"##cin":2571,"calla":2572,"tinta":2573,"jar":2574,"eterno":2575,"##bros":2576,"desa":2577,"último":2578,"despertar":2579,"ilusión":2580,"diez":2581,"sistema":2582,"##rás":2583,"##ume":2584,"##ñe":2585,"##ciona":2586,"duda":2587,"ceni":2588,"##ak":2589,"rapero":2590,"cree":2591,"crea":2592,"doble":2593,"##fecto":2594,"loca":2595,"tumba":2596,"feel":2597,"lun":2598,"mues":2599,"venir":2600,"##ficio":2601,"##anas":2602,"life":2603,"rico":2604,"luces":2605,"importante":2606,"derro":2607,"##ciedad":2608,"esco":2609,"##esti":2610,"cuida":2611,"uste":2612,"unas":2613,"##fica":2614,"estudi":2615,"reloj":2616,"locos":2617,"escuela":2618,"##til":2619,"rea":2620,"ansi":2621,"habl":2622,"alegría":2623,"dientes":2624,"sigui":2625,"cont":2626,"humil":2627,"fla":2628,"##tero":2629,"##brar":2630,"ellas":2631,"miran":2632,"##tidos":2633,"tirar":2634,"agar":2635,"##bien":2636,"##úm":2637,"##cito":2638,"dicho":2639,"pregunta":2640,"##zca":2641,"##itos":2642,"##alidad":2643,"siguen":2644,"##fas":2645,"##orra":2646,"##date":2647,"##vil":2648,"apro":2649,"cuader":2650,"edad":2651,"cojo":2652,"fotos":2653,"##ex":2654,"meta":2655,"##ciencia":2656,"vaci":2657,"##omi":2658,"##quiera":2659,"##rera":2660,"##arma":2661,"copi":2662,"cantar":2663,"aquello":2664,"podría":2665,"##mite":2666,"they":2667,"grita":2668,"respirar":2669,"hos":2670,"##ys":2671,"buenas":2672,"espacio":2673,"sois":2674,"plata":2675,"ángel":2676,"quita":2677,"escucho":2678,"posi":2679,"bl":2680,"cir":2681,"llamas":2682,"##ándote":2683,"chaval":2684,"follar":2685,"dj":2686,"##udo":2687,"##bus":2688,"conven":2689,"##risas":2690,"mcs":2691,"ner":2692,"tur":2693,"reco":2694,"voces":2695,"##tural":2696,"##guen":2697,"viven":2698,"##uros":2699,"polí":2700,"##gico":2701,"sonre":2702,"fumo":2703,"##puesto":2704,"memoria":2705,"descu":2706,"caí":2707,"expli":2708,"eli":2709,"apre":2710,"aj":2711,"##yos":2712,"##bí":2713,"cier":2714,"jugando":2715,"bailar":2716,"adiós":2717,"##rido":2718,"alta":2719,"hielo":2720,"buscas":2721,"baile":2722,"##fal":2723,"sed":2724,"sociedad":2725,"##dedor":2726,"cobar":2727,"pude":2728,"oscuridad":2729,"propia":2730,"psi":2731,"##vera":2732,"inte":2733,"##unidad":2734,"dejan":2735,"aquella":2736,"##osa":2737,"miser":2738,"meter":2739,"alim":2740,"##iencia":2741,"nivel":2742,"deje":2743,"##sin":2744,"##tumb":2745,"dejes":2746,"##ull":2747,"frase":2748,"viaje":2749,"principio":2750,"##ub":2751,"miras":2752,"aliento":2753,"maes":2754,"sobrevi":2755,"crí":2756,"chan":2757,"apun":2758,"##cula":2759,"basta":2760,"justo":2761,"##zc":2762,"##pol":2763,"##uso":2764,"caras":2765,"vender":2766,"glor":2767,"##dero":2768,"cultura":2769,"##arse":2770,"ener":2771,"was":2772,"##del":2773,"##dió":2774,"##tres":2775,"rapper":2776,"arras":2777,"invierno":2778,"fumando":2779,"actitud":2780,"every":2781,"never":2782,"gritar":2783,"estuve":2784,"directo":2785,"prisa":2786,"tó":2787,"##ep":2788,"##ror":2789,"##imos":2790,"##soy":2791,"hey":2792,"trata":2793,"##jado":2794,"##gü":2795,"subir":2796,"paga":2797,"correr":2798,"manda":2799,"llorando":2800,"folio":2801,"##cis":2802,"ruido":2803,"##su":2804,"media":2805,"padres":2806,"vengan":2807,"zona":2808,"##ccion":2809,"##bel":2810,"esencia":2811,"soli":2812,"march":2813,"hacerte":2814,"bienven":2815,"##cam":2816,"ello":2817,"##ramos":2818,"##quito":2819,"justi":2820,"profes":2821,"siquiera":2822,"##melo":2823,"llanto":2824,"romper":2825,"##pre":2826,"despa":2827,"barri":2828,"guap":2829,"ej":2830,"debes":2831,"almas":2832,"##gué":2833,"pierde":2834,"##bal":2835,"traje":2836,"mari":2837,"jode":2838,"regalo":2839,"oscuro":2840,"distinto":2841,"##king":2842,"##cación":2843,"rode":2844,"##ándole":2845,"regal":2846,"esquina":2847,"##eso":2848,"quin":2849,"vio":2850,"sudor":2851,"venas":2852,"fron":2853,"fru":2854,"sos":2855,"##zado":2856,"suelto":2857,"rumbo":2858,"poesía":2859,"situa":2860,"juan":2861,"##gues":2862,"quede":2863,"solas":2864,"llue":2865,"jodido":2866,"eleg":2867,"cerebro":2868,"cár":2869,"bail":2870,"comprar":2871,"miedos":2872,"llamar":2873,"opin":2874,"esfuer":2875,"20":2876,"oy":2877,"##emb":2878,"##ler":2879,"dejé":2880,"necesita":2881,"vuestro":2882,"cuantos":2883,"borracho":2884,"eu":2885,"mando":2886,"prepar":2887,"darle":2888,"fría":2889,"error":2890,"ur":2891,"##zz":2892,"##piro":2893,"enamor":2894,"depen":2895,"colo":2896,"herida":2897,"coger":2898,"dí":2899,"##bamos":2900,"condena":2901,"miradas":2902,"piso":2903,"regres":2904,"encanta":2905,"arena":2906,"dueño":2907,"caminar":2908,"piensas":2909,"bendi":2910,"##ment":2911,"##tente":2912,"##apor":2913,"##jate":2914,"amanecer":2915,"escenario":2916,"echo":2917,"run":2918,"grito":2919,"haré":2920,"pregunto":2921,"confun":2922,"comen":2923,"corta":2924,"##dura":2925,"##gl":2926,"##asi":2927,"asus":2928,"##eración":2929,"casti":2930,"infin":2931,"##od":2932,"##aso":2933,"boom":2934,"vienes":2935,"huele":2936,"##teras":2937,"jodan":2938,"rencor":2939,"abo":2940,"##mana":2941,"hablas":2942,"##bor":2943,"diario":2944,"vuestra":2945,"bonito":2946,"novia":2947,"dibu":2948,"senci":2949,"cuánto":2950,"aga":2951,"vein":2952,"pasando":2953,"culp":2954,"##luso":2955,"merece":2956,"bala":2957,"piernas":2958,"tap":2959,"##rero":2960,"##cé":2961,"##cra":2962,"##voy":2963,"##sion":2964,"nego":2965,"esconde":2966,"triun":2967,"quizá":2968,"río":2969,"##ze":2970,"sincer":2971,"nacer":2972,"resul":2973,"presión":2974,"curro":2975,"gordo":2976,"llegó":2977,"notas":2978,"entiende":2979,"wanna":2980,"dulce":2981,"fle":2982,"##gres":2983,"cago":2984,"fumar":2985,"última":2986,"rapear":2987,"oportunidad":2988,"cá":2989,"##dra":2990,"destro":2991,"perros":2992,"##core":2993,"núm":2994,"##umo":2995,"gusto":2996,"rí":2997,"llegue":2998,"crece":2999,"rompe":3000,"cra":3001,"natural":3002,"bebo":3003,"solución":3004,"escapa":3005,"drogas":3006,"balas":3007,"##donde":3008,"colores":3009,"##omos":3010,"nave":3011,"levanto":3012,"big":3013,"cuaderno":3014,"aus":3015,"gon":3016,"##ave":3017,"##tán":3018,"melo":3019,"cabal":3020,"##ahora":3021,"llegan":3022,"ponen":3023,"estaré":3024,"##cciones":3025,"arran":3026,"hacerme":3027,"golpes":3028,"oj":3029,"##ral":3030,"baj":3031,"rock":3032,"verano":3033,"##mio":3034,"pega":3035,"admi":3036,"##llan":3037,"estés":3038,"tengas":3039,"puñ":3040,"prima":3041,"escuchando":3042,"cuentas":3043,"cuesti":3044,"##estoy":3045,"##ines":3046,"inv":3047,"azul":3048,"##ial":3049,"mezc":3050,"alre":3051,"##denas":3052,"decirte":3053,"tristeza":3054,"revol":3055,"defen":3056,"sorp":3057,"raro":3058,"eran":3059,"ocas":3060,"##ee":3061,"##cle":3062,"##hay":3063,"lagrimas":3064,"diver":3065,"mater":3066,"poeta":3067,"instante":3068,"##rom":3069,"##rante":3070,"piedra":3071,"##iz":3072,"mane":3073,"hit":3074,"cinco":3075,"eras":3076,"tab":3077,"under":3078,"##ticas":3079,"##ienta":3080,"repi":3081,"make":3082,"pasó":3083,"tramp":3084,"guarda":3085,"puertas":3086,"##cados":3087,"repar":3088,"puedas":3089,"compli":3090,"##low":3091,"##cate":3092,"vencer":3093,"resis":3094,"some":3095,"acabe":3096,"entera":3097,"soñando":3098,"fas":3099,"contin":3100,"separ":3101,"mato":3102,"prote":3103,"dejado":3104,"bara":3105,"escribe":3106,"gritos":3107,"ido":3108,"pros":3109,"##ff":3110,"##kin":3111,"vuelva":3112,"fuimos":3113,"preguntas":3114,"bolsi":3115,"jefe":3116,"universo":3117,"##eran":3118,"##ables":3119,"esperan":3120,"llegado":3121,"firme":3122,"domin":3123,"reme":3124,"##quis":3125,"perdon":3126,"wa":3127,"sean":3128,"##amas":3129,"##dez":3130,"corri":3131,"ninguno":3132,"boy":3133,"##uda":3134,"escal":3135,"vende":3136,"público":3137,"##quen":3138,"time":3139,"pilla":3140,"robar":3141,"acción":3142,"viste":3143,"##ting":3144,"basura":3145,"sigues":3146,"chavales":3147,"club":3148,"perdida":3149,"caja":3150,"##gante":3151,"existen":3152,"fracaso":3153,"solos":3154,"llevas":3155,"preten":3156,"barro":3157,"##güen":3158,"fing":3159,"##ientras":3160,"supe":3161,"##bio":3162,"vete":3163,"mírame":3164,"evitar":3165,"bboy":3166,"derra":3167,"ira":3168,"ojo":3169,"##vando":3170,"##villa":3171,"verde":3172,"distancia":3173,"vivimos":3174,"obli":3175,"atención":3176,"abandon":3177,"##qu":3178,"entro":3179,"reina":3180,"sabemos":3181,"caliente":3182,"baja":3183,"##pal":3184,"haci":3185,"porta":3186,"trato":3187,"##fico":3188,"how":3189,"conoces":3190,"gobi":3191,"norte":3192,"##eme":3193,"##unque":3194,"##solo":3195,"monta":3196,"llamo":3197,"brillo":3198,"imagina":3199,"profundo":3200,"##top":3201,"log":3202,"##chan":3203,"vigi":3204,"amis":3205,"joven":3206,"insul":3207,"levanta":3208,"brazos":3209,"miel":3210,"destru":3211,"creas":3212,"dejando":3213,"guardo":3214,"gira":3215,"##ima":3216,"##mbo":3217,"##far":3218,"semana":3219,"copa":3220,"##culos":3221,"despierta":3222,"conseguir":3223,"hal":3224,"##diente":3225,"##dilla":3226,"nací":3227,"tormenta":3228,"tw":3229,"trá":3230,"##ry":3231,"##mu":3232,"##cán":3233,"tomar":3234,"duermo":3235,"tio":3236,"acabo":3237,"hubi":3238,"abrir":3239,"enemigo":3240,"uh":3241,"desapar":3242,"ilum":3243,"##dro":3244,"##orado":3245,"pico":3246,"palo":3247,"cambiado":3248,"vivido":3249,"black":3250,"botella":3251,"quisiera":3252,"bitch":3253,"##deo":3254,"viva":3255,"##rano":3256,"muera":3257,"cele":3258,"princes":3259,"##esas":3260,"mesa":3261,"acu":3262,"dedo":3263,"disfra":3264,"gargan":3265,"bos":3266,"##gs":3267,"paciencia":3268,"serás":3269,"rapeo":3270,"solamente":3271,"imagen":3272,"puse":3273,"tuvi":3274,"##dillas":3275,"subo":3276,"motivos":3277,"imper":3278,"##drá":3279,"aguantar":3280,"ple":3281,"vemos":3282,"mover":3283,"##torio":3284,"from":3285,"desierto":3286,"éx":3287,"##lé":3288,"armas":3289,"paredes":3290,"gloria":3291,"vives":3292,"red":3293,"##bado":3294,"incluso":3295,"inspiración":3296,"amistad":3297,"ave":3298,"plas":3299,"ulti":3300,"actu":3301,"alrededor":3302,"vuela":3303,"##este":3304,"mier":3305,"descar":3306,"veras":3307,"respira":3308,"hues":3309,"rue":3310,"##queta":3311,"coge":3312,"apues":3313,"tenerte":3314,"millones":3315,"sw":3316,"nomb":3317,"trago":3318,"obje":3319,"cruel":3320,"repe":3321,"arde":3322,"if":3323,"mó":3324,"debajo":3325,"##tados":3326,"caigo":3327,"harto":3328,"acostumb":3329,"##río":3330,"sabiendo":3331,"negra":3332,"crisis":3333,"respuesta":3334,"billetes":3335,"##ju":3336,"##entan":3337,"caro":3338,"planes":3339,"termina":3340,"reflejo":3341,"encar":3342,"##ucha":3343,"hardcore":3344,"queremos":3345,"recu":3346,"papa":3347,"##garme":3348,"nuevos":3349,"##cional":3350,"sentirme":3351,"cárcel":3352,"##ix":3353,"##gil":3354,"sec":3355,"mantengo":3356,"idea":3357,"##dón":3358,"##dente":3359,"apri":3360,"carro":3361,"say":3362,"vaso":3363,"nervi":3364,"##came":3365,"##bli":3366,"meto":3367,"nace":3368,"hará":3369,"listo":3370,"demonio":3371,"ara":3372,"llo":3373,"##ite":3374,"##pl":3375,"siga":3376,"cadenas":3377,"darme":3378,"luchando":3379,"fuerzas":3380,"papá":3381,"prueba":3382,"mun":3383,"var":3384,"ár":3385,"##ritu":3386,"quiso":3387,"##reno":3388,"lloro":3389,"chicos":3390,"levantar":3391,"idio":3392,"detal":3393,"##pico":3394,"libro":3395,"enemi":3396,"artista":3397,"ejemp":3398,"200":3399,"vente":3400,"##inos":3401,"causa":3402,"prohi":3403,"corte":3404,"mone":3405,"adelante":3406,"sencillo":3407,"sera":3408,"salga":3409,"sentado":3410,"sam":3411,"##ld":3412,"not":3413,"comien":3414,"confor":3415,"arreg":3416,"lin":3417,"engan":3418,"##dame":3419,"rojo":3420,"##cano":3421,"preso":3422,"esfuerzo":3423,"see":3424,"tumb":3425,"toco":3426,"##carme":3427,"##cencia":3428,"estáis":3429,"barco":3430,"cuerda":3431,"aprendi":3432,"ruina":3433,"depres":3434,"nigga":3435,"##gon":3436,"##iso":3437,"deli":3438,"verlo":3439,"llám":3440,"llevan":3441,"pala":3442,"corazones":3443,"plato":3444,"seguimos":3445,"extraño":3446,"##pp":3447,"noto":3448,"brilla":3449,"cabrones":3450,"entiendes":3451,"cuantas":3452,"agrade":3453,"king":3454,"za":3455,"contes":3456,"##tillas":3457,"techo":3458,"misión":3459,"sala":3460,"canta":3461,"meses":3462,"##rés":3463,"##sal":3464,"##cidos":3465,"parto":3466,"##vidad":3467,"mate":3468,"falso":3469,"##zó":3470,"##estar":3471,"miento":3472,"feo":3473,"pantal":3474,"duela":3475,"baila":3476,"hiciste":3477,"madru":3478,"aprove":3479,"cel":3480,"##amo":3481,"sonrisas":3482,"raps":3483,"exa":3484,"mur":3485,"banco":3486,"sobran":3487,"afi":3488,"##más":3489,"##gus":3490,"##dico":3491,"##taron":3492,"##ters":3493,"quienes":3494,"nuevas":3495,"pinta":3496,"qu":3497,"ris":3498,"gratis":3499,"enfermo":3500,"are":3501,"és":3502,"##así":3503,"##ciales":3504,"##dito":3505,"pared":3506,"simplemente":3507,"10":3508,"##iva":3509,"tell":3510,"##dios":3511,"piden":3512,"##terio":3513,"volveré":3514,"##ximo":3515,"honor":3516,"acuerdo":3517,"cuestión":3518,"##gal":3519,"##bé":3520,"caf":3521,"##cular":3522,"línea":3523,"usted":3524,"##sy":3525,"mismos":3526,"let":3527,"asfal":3528,"volvi":3529,"cré":3530,"líneas":3531,"sensación":3532,"100":3533,"ador":3534,"ran":3535,"coma":3536,"##didos":3537,"desen":3538,"deses":3539,"capi":3540,"gano":3541,"##vin":3542,"##resa":3543,"##lido":3544,"pudi":3545,"formas":3546,"ocur":3547,"et":3548,"##uh":3549,"##ii":3550,"##ñan":3551,"esque":3552,"metas":3553,"cog":3554,"hipo":3555,"bajar":3556,"##cari":3557,"fallo":3558,"wo":3559,"zapa":3560,"tuya":3561,"manten":3562,"mantener":3563,"compra":3564,"disfrutar":3565,"clan":3566,"##usas":3567,"##tantes":3568,"chicas":3569,"derri":3570,"way":3571,"##fos":3572,"##way":3573,"##est":3574,"sonar":3575,"ase":3576,"cali":3577,"abismo":3578,"verdades":3579,"mentir":3580,"mentes":3581,"##gles":3582,"mio":3583,"condu":3584,"victor":3585,"dias":3586,"abur":3587,"##talo":3588,"fuma":3589,"borde":3590,"pensamientos":3591,"avi":3592,"cue":3593,"comida":3594,"she":3595,"down":3596,"micró":3597,"pista":3598,"cicatrices":3599,"energía":3600,"fí":3601,"partir":3602,"estando":3603,"hogar":3604,"chulo":3605,"orgullos":3606,"##güenza":3607,"garganta":3608,"jor":3609,"##hab":3610,"##sar":3611,"mete":3612,"sel":3613,"ambi":3614,"sonrí":3615,"olor":3616,"minuto":3617,"##ies":3618,"##éc":3619,"##pado":3620,"pata":3621,"coco":3622,"##tano":3623,"vieja":3624,"há":3625,"multi":3626,"impa":3627,"mono":3628,"textos":3629,"##reo":3630,"seria":3631,"exi":3632,"castigo":3633,"##torno":3634,"##enda":3635,"condi":3636,"almo":3637,"veci":3638,"poca":3639,"##siones":3640,"mueren":3641,"##fectos":3642,"bella":3643,"##mentos":3644,"##col":3645,"palos":3646,"instin":3647,"orden":3648,"ok":3649,"sta":3650,"##lada":3651,"pod":3652,"who":3653,"##tria":3654,"rostro":3655,"##tus":3656,"comba":3657,"sonando":3658,"cham":3659,"face":3660,"posible":3661,"##ucion":3662,"##fía":3663,"##gor":3664,"campo":3665,"cierra":3666,"pró":3667,"belle":3668,"batalla":3669,"infinito":3670,"gre":3671,"vini":3672,"##bando":3673,"##istas":3674,"incon":3675,"maqui":3676,"pudo":3677,"city":3678,"more":3679,"##donos":3680,"quedarme":3681,"juega":3682,"asfalto":3683,"##cs":3684,"##uera":3685,"porqué":3686,"##unda":3687,"toque":3688,"##ceso":3689,"razones":3690,"pisto":3691,"podrás":3692,"promesas":3693,"secreto":3694,"stre":3695,"##pue":3696,"tote":3697,"ano":3698,"podemos":3699,"apos":3700,"caminos":3701,"movimiento":3702,"duerme":3703,"sentí":3704,"##fu":3705,"espi":3706,"##trum":3707,"corto":3708,"fac":3709,"banda":3710,"rosa":3711,"apaga":3712,"disparo":3713,"glo":3714,"lista":3715,"##umi":3716,"##cente":3717,"ens":3718,"##rados":3719,"party":3720,"vais":3721,"##dario":3722,"rutina":3723,"ciencia":3724,"sop":3725,"salto":3726,"demues":3727,"concierto":3728,"bailando":3729,"árbol":3730,"amp":3731,"##onas":3732,"##teo":3733,"diam":3734,"matan":3735,"vuelven":3736,"escuchan":3737,"piensan":3738,"mierdas":3739,"móvil":3740,"##eis":3741,"##rin":3742,"serp":3743,"dejó":3744,"discos":3745,"acor":3746,"acaso":3747,"empu":3748,"conocen":3749,"vel":3750,"##camos":3751,"partes":3752,"estri":3753,"##trado":3754,"pocas":3755,"abro":3756,"esperas":3757,"##pongo":3758,"intenta":3759,"##edad":3760,"##tta":3761,"##pera":3762,"carrera":3763,"pecado":3764,"cerrar":3765,"cuidar":3766,"descono":3767,"esclavo":3768,"acabó":3769,"contento":3770,"sti":3771,"quemar":3772,"##dín":3773,"abrazo":3774,"fues":3775,"##pro":3776,"sienta":3777,"seis":3778,"##bilidad":3779,"apo":3780,"carga":3781,"##umen":3782,"cuidado":3783,"policía":3784,"cobarde":3785,"lor":3786,"sú":3787,"compi":3788,"peda":3789,"rompo":3790,"sueno":3791,"pelea":3792,"suave":3793,"dig":3794,"ini":3795,"cai":3796,"equipo":3797,"oído":3798,"ejemplo":3799,"##temp":3800,"diri":3801,"##ell":3802,"llenar":3803,"about":3804,"##jón":3805,"sevilla":3806,"sucio":3807,"minutos":3808,"girl":3809,"ment":3810,"##aca":3811,"##tt":3812,"##asta":3813,"decía":3814,"vicio":3815,"cuch":3816,"apla":3817,"##ecé":3818,"sang":3819,"terror":3820,"viejos":3821,"disfruta":3822,"millón":3823,"encontré":3824,"éxito":3825,"##ares":3826,"diciendo":3827,"niñas":3828,"vergüenza":3829,"calidad":3830,"crew":3831,"sombras":3832,"pensé":3833,"equili":3834,"suici":3835,"huella":3836,"jes":3837,"##zqui":3838,"##vado":3839,"caos":3840,"venta":3841,"here":3842,"playa":3843,"##jeron":3844,"##imo":3845,"##éro":3846,"##ína":3847,"dij":3848,"costa":3849,"intelig":3850,"despacio":3851,"##iza":3852,"quedas":3853,"##rico":3854,"temo":3855,"estrés":3856,"##dencia":3857,"bebiendo":3858,"presid":3859,"guía":3860,"ayudar":3861,"rappers":3862,"situación":3863,"lon":3864,"##aunque":3865,"##leo":3866,"##cul":3867,"cima":3868,"falsos":3869,"felices":3870,"musa":3871,"clás":3872,"violencia":3873,"competi":3874,"café":3875,"ado":3876,"oír":3877,"amena":3878,"apenas":3879,"marcha":3880,"muri":3881,"presa":3882,"god":3883,"##tyle":3884,"prometo":3885,"consigo":3886,"saliva":3887,"preocupa":3888,"##piendo":3889,"##jus":3890,"##by":3891,"##encias":3892,"enti":3893,"##titu":3894,"subi":3895,"escena":3896,"cigar":3897,"sacri":3898,"fijo":3899,"hojas":3900,"irme":3901,"broma":3902,"alcanzar":3903,"piedras":3904,"segundos":3905,"belleza":3906,"retro":3907,"tiran":3908,"venden":3909,"proyec":3910,"dispara":3911,"filo":3912,"empecé":3913,"parecer":3914,"tambien":3915,"consecuen":3916,"perfecta":3917,"##ugh":3918,"siete":3919,"##omas":3920,"sepas":3921,"quitar":3922,"karma":3923,"num":3924,"##bran":3925,"##are":3926,"inqui":3927,"trap":3928,"fuga":3929,"instrum":3930,"##grima":3931,"kill":3932,"sientas":3933,"##ándose":3934,"hable":3935,"been":3936,"papeles":3937,"pájar":3938,"pones":3939,"bang":3940,"mag":3941,"interes":3942,"suenan":3943,"music":3944,"conciertos":3945,"bombo":3946,"siguiente":3947,"##hada":3948,"temb":3949,"pago":3950,"##uld":3951,"##nimo":3952,"perdiendo":3953,"seguiré":3954,"arrepenti":3955,"oídos":3956,"llave":3957,"sonreír":3958,"##rón":3959,"##dme":3960,"##cir":3961,"##ella":3962,"##gura":3963,"faltan":3964,"cena":3965,"ná":3966,"##ende":3967,"##osi":3968,"conc":3969,"divi":3970,"llegas":3971,"males":3972,"dejas":3973,"puso":3974,"convierte":3975,"desgra":3976,"perra":3977,"cartas":3978,"regga":3979,"##dirme":3980,"colega":3981,"represento":3982,"almohada":3983,"acari":3984,"bam":3985,"depor":3986,"servi":3987,"##bil":3988,"vacía":3989,"him":3990,"##desde":3991,"cansa":3992,"new":3993,"escuchas":3994,"give":3995,"cuántos":3996,"hierba":3997,"micrófono":3998,"atre":3999,"gh":4000,"temor":4001,"inmor":4002,"caus":4003,"mola":4004,"besar":4005,"constante":4006,"repente":4007,"guerras":4008,"televis":4009,"street":4010,"##ide":4011,"##cui":4012,"desta":4013,"descri":4014,"vela":4015,"##tario":4016,"rotos":4017,"pierdes":4018,"bandera":4019,"yon":4020,"##ác":4021,"supi":4022,"##oyo":4023,"sabía":4024,"vayas":4025,"carre":4026,"barras":4027,"radio":4028,"conoci":4029,"necesitas":4030,"infancia":4031,"tonter":4032,"cumplir":4033,"enemigos":4034,"##ny":4035,"them":4036,"animal":4037,"venganza":4038,"bul":4039,"conec":4040,"reír":4041,"##medad":4042,"cau":4043,"call":4044,"corriendo":4045,"volando":4046,"cerve":4047,"take":4048,"larga":4049,"cán":4050,"fil":4051,"look":4052,"reales":4053,"veas":4054,"vales":4055,"plaza":4056,"prome":4057,"avanzar":4058,"empiezo":4059,"##adas":4060,"##món":4061,"##erro":4062,"lobo":4063,"creí":4064,"fort":4065,"necesario":4066,"demostrar":4067,"id":4068,"quí":4069,"##ela":4070,"##din":4071,"##viste":4072,"##entando":4073,"bocas":4074,"aprendido":4075,"necesidad":4076,"fuertes":4077,"amiga":4078,"signi":4079,"lunes":4080,"fus":4081,"##izon":4082,"##her":4083,"##cita":4084,"diré":4085,"##deras":4086,"cantando":4087,"despre":4088,"experiencia":4089,"partida":4090,"miseria":4091,"risa":4092,"lao":4093,"##tima":4094,"social":4095,"right":4096,"valiente":4097,"testigo":4098,"princesa":4099,"##ao":4100,"##ate":4101,"##ñol":4102,"##rovis":4103,"top":4104,"inde":4105,"desas":4106,"falla":4107,"conocí":4108,"bastante":4109,"ilusiones":4110,"justicia":4111,"bús":4112,"dur":4113,"game":4114,"##didas":4115,"matando":4116,"pillo":4117,"asco":4118,"alguno":4119,"explicar":4120,"maestro":4121,"llueve":4122,"celos":4123,"jui":4124,"##ker":4125,"##alá":4126,"miente":4127,"##tida":4128,"alum":4129,"total":4130,"##mig":4131,"carta":4132,"lleve":4133,"maldad":4134,"compás":4135,"horizon":4136,"estudio":4137,"tomo":4138,"embar":4139,"cine":4140,"##em":4141,"##hu":4142,"sepa":4143,"estabas":4144,"##pida":4145,"##guas":4146,"limi":4147,"follo":4148,"algunas":4149,"##ginas":4150,"bloque":4151,"jardín":4152,"sar":4153,"##mientras":4154,"sof":4155,"##tara":4156,"llan":4157,"perdona":4158,"pensamiento":4159,"instinto":4160,"##vien":4161,"##yen":4162,"##uelas":4163,"semi":4164,"hacía":4165,"##tias":4166,"salvar":4167,"##cara":4168,"hermos":4169,"guapa":4170,"muevo":4171,"respiro":4172,"mereces":4173,"sufrimiento":4174,"etern":4175,"##tito":4176,"##dime":4177,"ahi":4178,"extre":4179,"mares":4180,"dioses":4181,"musi":4182,"blanca":4183,"abrigo":4184,"hicieron":4185,"cenizas":4186,"culpable":4187,"##íamos":4188,"##todos":4189,"##ins":4190,"madu":4191,"cuentos":4192,"diferencia":4193,"atento":4194,"nervios":4195,"##gó":4196,"##eren":4197,"sil":4198,"papi":4199,"##entre":4200,"##mica":4201,"hechos":4202,"pose":4203,"##ness":4204,"mires":4205,"##abo":4206,"apor":4207,"caza":4208,"probar":4209,"fallar":4210,"##tores":4211,"compas":4212,"lucho":4213,"##ados":4214,"sienten":4215,"conquis":4216,"tetas":4217,"suce":4218,"dijeron":4219,"espí":4220,"espec":4221,"callo":4222,"vengas":4223,"##tana":4224,"##rup":4225,"##illas":4226,"bebe":4227,"ciegos":4228,"santa":4229,"crío":4230,"ambiente":4231,"enfrente":4232,"gobierno":4233,"fuese":4234,"ace":4235,"war":4236,"late":4237,"tuvo":4238,"tirando":4239,"bares":4240,"realmente":4241,"afuera":4242,"señal":4243,"punta":4244,"guapo":4245,"contando":4246,"##abi":4247,"ind":4248,"saltar":4249,"puño":4250,"cause":4251,"agujero":4252,"explico":4253,"clave":4254,"musica":4255,"tendrás":4256,"want":4257,"acompañ":4258,"aut":4259,"##vivo":4260,"poe":4261,"pobres":4262,"sueña":4263,"reyes":4264,"usar":4265,"##ió":4266,"##ph":4267,"##fon":4268,"##aria":4269,"sién":4270,"conten":4271,"patr":4272,"pop":4273,"ponga":4274,"ratas":4275,"iguales":4276,"fans":4277,"pienses":4278,"trabajar":4279,"sorpren":4280,"##icos":4281,"novio":4282,"latidos":4283,"tiemb":4284,"venido":4285,"masa":4286,"marea":4287,"corro":4288,"hermana":4289,"abierto":4290,"intentando":4291,"star":4292,"##uta":4293,"##brio":4294,"quemo":4295,"##rada":4296,"recha":4297,"cuál":4298,"tenido":4299,"velo":4300,"##lio":4301,"ahor":4302,"muro":4303,"barra":4304,"valen":4305,"apare":4306,"human":4307,"caminando":4308,"im":4309,"##ef":4310,"##stru":4311,"##tea":4312,"##ché":4313,"dirán":4314,"podri":4315,"prop":4316,"busques":4317,"merezco":4318,"emociones":4319,"continu":4320,"daba":4321,"##vés":4322,"quedó":4323,"##timos":4324,"##deja":4325,"inven":4326,"brillar":4327,"imag":4328,"bomba":4329,"eterna":4330,"fruto":4331,"añ":4332,"bis":4333,"##ct":4334,"quieran":4335,"gustan":4336,"##jeras":4337,"rosas":4338,"origin":4339,"encerrado":4340,"frio":4341,"##ulo":4342,"##lón":4343,"conden":4344,"separa":4345,"rebel":4346,"permi":4347,"cartera":4348,"day":4349,"actos":4350,"constru":4351,"suene":4352,"world":4353,"capital":4354,"efecto":4355,"tuer":4356,"varios":4357,"semb":4358,"##digo":4359,"raí":4360,"platos":4361,"jamas":4362,"enseña":4363,"encuentra":4364,"nube":4365,"##cían":4366,"medios":4367,"fluye":4368,"absur":4369,"veinte":4370,"fab":4371,"##yó":4372,"##end":4373,"##estas":4374,"hagan":4375,"dicta":4376,"vea":4377,"aparte":4378,"prepara":4379,"tercer":4380,"respeta":4381,"tontos":4382,"ritmos":4383,"oscuras":4384,"suelta":4385,"bonita":4386,"compartir":4387,"dre":4388,"##yan":4389,"##lash":4390,"improvis":4391,"valgo":4392,"acera":4393,"idiota":4394,"##kis":4395,"##esc":4396,"##loque":4397,"diles":4398,"fallos":4399,"facil":4400,"gato":4401,"obses":4402,"abierta":4403,"fresco":4404,"número":4405,"aver":4406,"izqui":4407,"zorra":4408,"##my":4409,"mienten":4410,"##rea":4411,"payas":4412,"hubo":4413,"##ground":4414,"enseño":4415,"acerca":4416,"musical":4417,"pár":4418,"só":4419,"delin":4420,"pillar":4421,"chis":4422,"crear":4423,"##loso":4424,"##gancia":4425,"español":4426,"diferentes":4427,"enfermedad":4428,"lenguaje":4429,"rincón":4430,"lanza":4431,"ral":4432,"contemp":4433,"##tillo":4434,"altura":4435,"estal":4436,"serán":4437,"mantiene":4438,"frus":4439,"cuerpos":4440,"estuvi":4441,"representa":4442,"free":4443,"corriente":4444,"orgulloso":4445,"cd":4446,"igles":4447,"ka":4448,"odia":4449,"vin":4450,"##ual":4451,"##ving":4452,"##íso":4453,"noti":4454,"cuándo":4455,"pagan":4456,"pierda":4457,"espada":4458,"vendo":4459,"##body":4460,"recom":4461,"##ándolo":4462,"pisar":4463,"panor":4464,"vuestros":4465,"hol":4466,"idi":4467,"tía":4468,"taba":4469,"##pando":4470,"##eri":4471,"estru":4472,"veis":4473,"asom":4474,"salí":4475,"susur":4476,"hotel":4477,"olvides":4478,"obra":4479,"andando":4480,"infor":4481,"##dalo":4482,"##fia":4483,"relig":4484,"salud":4485,"tron":4486,"negocio":4487,"religión":4488,"jó":4489,"vom":4490,"vano":4491,"##zamos":4492,"##hasta":4493,"##arlo":4494,"injus":4495,"paisa":4496,"##guro":4497,"libres":4498,"cascos":4499,"ray":4500,"acaban":4501,"despues":4502,"preguntan":4503,"vuestras":4504,"generación":4505,"arrepiento":4506,"hablamos":4507,"héro":4508,"##ser":4509,"##leta":4510,"extin":4511,"opción":4512,"texto":4513,"acel":4514,"##tía":4515,"##yal":4516,"ladr":4517,"##teme":4518,"##rito":4519,"dieron":4520,"través":4521,"##net":4522,"haría":4523,"clavo":4524,"cuántas":4525,"rapeando":4526,"fronteras":4527,"uso":4528,"##ure":4529,"querido":4530,"enven":4531,"alar":4532,"soul":4533,"paraíso":4534,"pill":4535,"tristes":4536,"aguanta":4537,"##estima":4538,"line":4539,"##cli":4540,"##vamos":4541,"defectos":4542,"lados":4543,"amas":4544,"cic":4545,"muñe":4546,"gracia":4547,"hueco":4548,"cristo":4549,"try":4550,"break":4551,"debería":4552,"bolsillo":4553,"remedio":4554,"hones":4555,"jer":4556,"##dono":4557,"els":4558,"mila":4559,"redes":4560,"seres":4561,"copas":4562,"rota":4563,"bombas":4564,"hazlo":4565,"comprender":4566,"niggas":4567,"humildad":4568,"cientos":4569,"nen":4570,"ore":4571,"oigo":4572,"##miendo":4573,"##ffi":4574,"##ose":4575,"reba":4576,"poquito":4577,"pegar":4578,"bola":4579,"razon":4580,"consciente":4581,"amargo":4582,"freno":4583,"convertir":4584,"demonios":4585,"desnuda":4586,"hubiera":4587,"presidente":4588,"edi":4589,"over":4590,"##cres":4591,"##xico":4592,"desah":4593,"coches":4594,"baño":4595,"need":4596,"furia":4597,"conocido":4598,"tac":4599,"puntos":4600,"flipa":4601,"aceptar":4602,"derecho":4603,"euro":4604,"espíritu":4605,"duel":4606,"ed":4607,"encen":4608,"alter":4609,"partido":4610,"##ástico":4611,"##ucho":4612,"sonrío":4613,"campe":4614,"putos":4615,"nostal":4616,"muros":4617,"prisión":4618,"frá":4619,"iré":4620,"afron":4621,"still":4622,"flash":4623,"gro":4624,"zara":4625,"##diste":4626,"##tter":4627,"mir":4628,"##tió":4629,"alqui":4630,"vier":4631,"incre":4632,"##ello":4633,"##tual":4634,"volví":4635,"grave":4636,"gustar":4637,"##genes":4638,"##éndote":4639,"principios":4640,"suicida":4641,"selva":4642,"huir":4643,"##tador":4644,"salta":4645,"nacido":4646,"##énde":4647,"dejarme":4648,"soltar":4649,"perdió":4650,"funcion":4651,"existir":4652,"movida":4653,"usa":4654,"##uto":4655,"quemando":4656,"##escri":4657,"##damos":4658,"portal":4659,"incom":4660,"paseo":4661,"roba":4662,"##cono":4663,"entienden":4664,"respuestas":4665,"depende":4666,"crack":4667,"ojalá":4668,"underground":4669,"fortuna":4670,"lenta":4671,"vér":4672,"##mal":4673,"demo":4674,"tuyos":4675,"vicios":4676,"trajo":4677,"hables":4678,"premio":4679,"muriendo":4680,"falte":4681,"querías":4682,"conser":4683,"pierden":4684,"revés":4685,"medias":4686,"normas":4687,"autoestima":4688,"secretos":4689,"huesos":4690,"victoria":4691,"echa":4692,"evol":4693,"sk":4694,"##reras":4695,"##gón":4696,"hadas":4697,"##rios":4698,"quito":4699,"inci":4700,"puen":4701,"##mia":4702,"trayec":4703,"##uér":4704,"maltra":4705,"impres":4706,"##toria":4707,"##ullo":4708,"moral":4709,"whis":4710,"ciudades":4711,"épo":4712,"siren":4713,"comun":4714,"ingen":4715,"##selo":4716,"nega":4717,"gang":4718,"llores":4719,"funciona":4720,"abrazos":4721,"peligro":4722,"complicado":4723,"horizonte":4724,"eva":4725,"famos":4726,"már":4727,"wal":4728,"##aquí":4729,"##tones":4730,"sello":4731,"into":4732,"pira":4733,"camina":4734,"lib":4735,"cash":4736,"##cante":4737,"pese":4738,"term":4739,"##gica":4740,"dance":4741,"crimen":4742,"grises":4743,"lograr":4744,"llámame":4745,"risas":4746,"##dientes":4747,"##lon":4748,"##cimos":4749,"tec":4750,"##inar":4751,"pasé":4752,"##deros":4753,"hija":4754,"quédate":4755,"mara":4756,"poniendo":4757,"gota":4758,"sufre":4759,"##xima":4760,"lanzo":4761,"maldito":4762,"bando":4763,"brisa":4764,"rena":4765,"stop":4766,"##ego":4767,"##fí":4768,"desha":4769,"explica":4770,"lloran":4771,"##volver":4772,"traicion":4773,"ansiedad":4774,"humilde":4775,"elegir":4776,"melodía":4777,"identi":4778,"sofá":4779,"##menta":4780,"##nada":4781,"mia":4782,"mili":4783,"##cian":4784,"##late":4785,"##quetas":4786,"##apero":4787,"espinas":4788,"##tale":4789,"joda":4790,"quedado":4791,"derru":4792,"hicimos":4793,"tabaco":4794,"smo":4795,"elec":4796,"soga":4797,"##lados":4798,"perse":4799,"cabo":4800,"pierdas":4801,"cruzar":4802,"encuentras":4803,"personal":4804,"típico":4805,"brazo":4806,"deseos":4807,"transfor":4808,"cerveza":4809,"desastre":4810,"mapa":4811,"sp":4812,"##ning":4813,"##goza":4814,"perman":4815,"##mido":4816,"crema":4817,"##lares":4818,"these":4819,"falsa":4820,"##rarme":4821,"refu":4822,"envidi":4823,"odiar":4824,"confianza":4825,"circo":4826,"bienvenido":4827,"revolución":4828,"##fuck":4829,"viernes":4830,"duros":4831,"según":4832,"##cao":4833,"cargo":4834,"pego":4835,"##éndose":4836,"vuelvas":4837,"santo":4838,"peligros":4839,"imi":4840,"will":4841,"##mula":4842,"##ór":4843,"lamento":4844,"##lao":4845,"sales":4846,"apu":4847,"corrup":4848,"ponme":4849,"cambie":4850,"cuentan":4851,"monstru":4852,"controlar":4853,"humanos":4854,"salió":4855,"botellas":4856,"apoyo":4857,"educación":4858,"##gir":4859,"envuel":4860,"enloque":4861,"supuesto":4862,"escú":4863,"chun":4864,"internet":4865,"esconder":4866,"consejos":4867,"leyes":4868,"enseñar":4869,"caricias":4870,"agon":4871,"inocencia":4872,"barrios":4873,"##nio":4874,"##vame":4875,"##tbol":4876,"##sen":4877,"##ertas":4878,"sep":4879,"vivos":4880,"suyo":4881,"##ush":4882,"pieza":4883,"##sidad":4884,"precios":4885,"abuelo":4886,"rayo":4887,"muerta":4888,"necesi":4889,"consuelo":4890,"flows":4891,"llenas":4892,"tesoro":4893,"limpi":4894,"desnudo":4895,"animales":4896,"compañía":4897,"indus":4898,"##rías":4899,"##sel":4900,"##table":4901,"alba":4902,"##int":4903,"tenéis":4904,"##quien":4905,"##siempre":4906,"##ficar":4907,"resu":4908,"rojos":4909,"templo":4910,"##tilla":4911,"##ambre":4912,"revis":4913,"delito":4914,"dejarte":4915,"roca":4916,"cambian":4917,"bello":4918,"métri":4919,"gonna":4920,"panorama":4921,"spe":4922,"##ivo":4923,"##xia":4924,"metido":4925,"hac":4926,"porro":4927,"##tic":4928,"rece":4929,"##fil":4930,"robo":4931,"corres":4932,"amores":4933,"off":4934,"consejo":4935,"genio":4936,"deprisa":4937,"truco":4938,"ignorancia":4939,"delincuen":4940,"aro":4941,"##dora":4942,"##tén":4943,"##tili":4944,"reto":4945,"inse":4946,"##bida":4947,"amante":4948,"pidiendo":4949,"##lito":4950,"aprieta":4951,"ses":4952,"decep":4953,"##anan":4954,"quem":4955,"difi":4956,"##oya":4957,"perf":4958,"##taste":4959,"puños":4960,"olvidado":4961,"volverá":4962,"gasto":4963,"perdidos":4964,"objetivo":4965,"##cus":4966,"##tín":4967,"devuel":4968,"bad":4969,"negros":4970,"abuela":4971,"##gantes":4972,"interesa":4973,"adver":4974,"##thing":4975,"ahoga":4976,"provoca":4977,"asesino":4978,"nostalgia":4979,"cír":4980,"##zy":4981,"##kes":4982,"##asa":4983,"sien":4984,"sedu":4985,"comiendo":4986,"video":4987,"desay":4988,"tic":4989,"camuf":4990,"cadena":4991,"crecí":4992,"preci":4993,"saque":4994,"valores":4995,"aguanto":4996,"##jeros":4997,"humor":4998,"damos":4999,"ló":5000,"##iempre":5001,"##ló":5002,"##lin":5003,"##cientes":5004,"porros":5005,"alf":5006,"reza":5007,"ani":5008,"sabéis":5009,"libros":5010,"mortal":5011,"parecen":5012,"invito":5013,"piezas":5014,"pulso":5015,"excusa":5016,"ambición":5017,"deporte":5018,"avent":5019,"ber":5020,"eta":5021,"ph":5022,"##dona":5023,"##ensa":5024,"##abes":5025,"progres":5026,"acto":5027,"vuelves":5028,"ciega":5029,"habilidad":5030,"juegan":5031,"contarte":5032,"llaves":5033,"ste":5034,"##lí":5035,"##óma":5036,"metro":5037,"contr":5038,"##ish":5039,"lección":5040,"##cua":5041,"##tienen":5042,"crudo":5043,"clap":5044,"juez":5045,"fucking":5046,"ultimo":5047,"gesto":5048,"vía":5049,"##zada":5050,"##ático":5051,"##dados":5052,"teor":5053,"seremos":5054,"##pie":5055,"cobra":5056,"##mira":5057,"##sito":5058,"arm":5059,"marco":5060,"quererte":5061,"dejarlo":5062,"relación":5063,"kilos":5064,"caballo":5065,"madrugada":5066,"pí":5067,"##jada":5068,"##eral":5069,"##amor":5070,"dir":5071,"tenia":5072,"##tarse":5073,"put":5074,"thro":5075,"thin":5076,"ricos":5077,"##venes":5078,"ganado":5079,"adul":5080,"jack":5081,"jung":5082,"pequeña":5083,"atrapa":5084,"dormido":5085,"check":5086,"discul":5087,"acompaña":5088,"ausencia":5089,"clásico":5090,"bye":5091,"##fes":5092,"queri":5093,"pares":5094,"##gate":5095,"podía":5096,"hear":5097,"cayendo":5098,"corona":5099,"gritan":5100,"gritando":5101,"dejaré":5102,"pequeños":5103,"batallas":5104,"vícti":5105,"trampa":5106,"llantos":5107,"izquierda":5108,"pé":5109,"tono":5110,"##oh":5111,"##taba":5112,"##inta":5113,"##dicen":5114,"vernos":5115,"codo":5116,"sabrás":5117,"pecados":5118,"##ficial":5119,"escribí":5120,"filoso":5121,"esperes":5122,"gafas":5123,"temprano":5124,"dedico":5125,"descanso":5126,"original":5127,"atras":5128,"fé":5129,"olas":5130,"##dá":5131,"##sé":5132,"##woy":5133,"##truir":5134,"parado":5135,"sintiendo":5136,"amarte":5137,"##piz":5138,"salvo":5139,"mandar":5140,"protes":5141,"estará":5142,"decisión":5143,"verdadero":5144,"interés":5145,"tacto":5146,"pintas":5147,"cemento":5148,"obliga":5149,"detalles":5150,"pedazos":5151,"humanidad":5152,"iglesia":5153,"aum":5154,"##orme":5155,"alturas":5156,"##chu":5157,"##decer":5158,"escar":5159,"##tudes":5160,"arder":5161,"diste":5162,"##guir":5163,"fiera":5164,"empeño":5165,"gili":5166,"controlo":5167,"naturaleza":5168,"material":5169,"##aré":5170,"have":5171,"mother":5172,"impul":5173,"barcel":5174,"empa":5175,"estarás":5176,"visión":5177,"podrá":5178,"hazme":5179,"limpio":5180,"sonríe":5181,"estribi":5182,"bir":5183,"eri":5184,"imb":5185,"kil":5186,"melan":5187,"##ung":5188,"hecha":5189,"mancha":5190,"pez":5191,"dejaste":5192,"compro":5193,"dará":5194,"insis":5195,"borrar":5196,"libreta":5197,"enfo":5198,"gotta":5199,"prensa":5200,"entren":5201,"keep":5202,"maldita":5203,"muestra":5204,"sobrevivir":5205,"inmortal":5206,"ejer":5207,"##estos":5208,"##tao":5209,"teniendo":5210,"motor":5211,"pongas":5212,"##illos":5213,"recuerdas":5214,"##key":5215,"contrato":5216,"reglas":5217,"gorra":5218,"fluyo":5219,"ghet":5220,"dam":5221,"conge":5222,"maqueta":5223,"##pica":5224,"pupi":5225,"resuel":5226,"palmas":5227,"##grafo":5228,"opciones":5229,"escupi":5230,"chupa":5231,"promo":5232,"trono":5233,"existencia":5234,"engañar":5235,"bienvenidos":5236,"opinión":5237,"##bby":5238,"##ari":5239,"camis":5240,"shor":5241,"hura":5242,"##come":5243,"largas":5244,"sueldo":5245,"bomb":5246,"pluma":5247,"primavera":5248,"ge":5249,"pán":5250,"##nar":5251,"##ván":5252,"##óme":5253,"##xo":5254,"concep":5255,"llé":5256,"creía":5257,"hilo":5258,"then":5259,"rob":5260,"##ings":5261,"rimar":5262,"lujo":5263,"##visible":5264,"leyenda":5265,"bene":5266,"adoles":5267,"desgracia":5268,"reggae":5269,"frágil":5270,"zaragoza":5271,"aci":5272,"afec":5273,"##form":5274,"entorno":5275,"acá":5276,"duelo":5277,"pintar":5278,"estuvo":5279,"cuido":5280,"clases":5281,"billete":5282,"derrota":5283,"again":5284,"invento":5285,"##ttle":5286,"cáncer":5287,"juicio":5288,"gilipol":5289,"##udas":5290,"##icas":5291,"##cales":5292,"##fle":5293,"##rime":5294,"parques":5295,"aplas":5296,"cala":5297,"pendiente":5298,"disim":5299,"soldado":5300,"gramos":5301,"fatal":5302,"llamada":5303,"terreno":5304,"rengl":5305,"frees":5306,"segunda":5307,"cierro":5308,"equilibrio":5309,"estruc":5310,"##tch":5311,"##game":5312,"sound":5313,"##ellos":5314,"tensión":5315,"##apas":5316,"leer":5317,"anh":5318,"angus":5319,"cartel":5320,"tratar":5321,"dise":5322,"suspiro":5323,"juvent":5324,"##drán":5325,"vientre":5326,"follen":5327,"bolsa":5328,"trope":5329,"trabaja":5330,"enamorado":5331,"alimenta":5332,"##cismo":5333,"resulta":5334,"zapatos":5335,"ep":5336,"##ctivo":5337,"##yy":5338,"##jarme":5339,"vital":5340,"inmen":5341,"desor":5342,"salv":5343,"cortar":5344,"sentidos":5345,"jug":5346,"mostrar":5347,"orilla":5348,"ready":5349,"números":5350,"vértigo":5351,"pam":5352,"téc":5353,"ésta":5354,"##op":5355,"##ábamos":5356,"##bl":5357,"##alos":5358,"##chado":5359,"cuba":5360,"##iado":5361,"rodillas":5362,"raya":5363,"límite":5364,"piedad":5365,"engaño":5366,"bron":5367,"domingo":5368,"aco":5369,"clo":5370,"hin":5371,"##ería":5372,"leo":5373,"##guar":5374,"margen":5375,"bolo":5376,"finde":5377,"cable":5378,"beef":5379,"terri":5380,"levantarme":5381,"cueste":5382,"shotta":5383,"##éndolo":5384,"egoís":5385,"pussy":5386,"pelí":5387,"##aaaa":5388,"políticos":5389,"repetir":5390,"monedas":5391,"depresión":5392,"podéis":5393,"fur":5394,"omb":5395,"##dones":5396,"##zi":5397,"##onia":5398,"nova":5399,"inver":5400,"##trando":5401,"dispuesto":5402,"##cks":5403,"rata":5404,"vuelan":5405,"pensaba":5406,"cambió":5407,"##dré":5408,"insom":5409,"bases":5410,"where":5411,"nudo":5412,"colegio":5413,"trozo":5414,"faro":5415,"whisky":5416,"euros":5417,"gim":5418,"utili":5419,"##ner":5420,"##pres":5421,"##chame":5422,"divis":5423,"però":5424,"anun":5425,"sonri":5426,"salido":5427,"traen":5428,"precipi":5429,"good":5430,"irá":5431,"##banas":5432,"treinta":5433,"bboys":5434,"llover":5435,"15":5436,"zor":5437,"deba":5438,"novi":5439,"too":5440,"diría":5441,"##olas":5442,"##gadas":5443,"madera":5444,"camar":5445,"vacil":5446,"acon":5447,"boo":5448,"raza":5449,"guay":5450,"intentes":5451,"conform":5452,"amigas":5453,"débil":5454,"páginas":5455,"manipu":5456,"juventud":5457,"ev":5458,"##ñar":5459,"##ong":5460,"##tadas":5461,"lodo":5462,"alu":5463,"##chando":5464,"invent":5465,"apete":5466,"volumen":5467,"importan":5468,"##grado":5469,"queréis":5470,"estilos":5471,"rompi":5472,"gastar":5473,"##monos":5474,"sentía":5475,"cristales":5476,"avanza":5477,"friend":5478,"idioma":5479,"ghetto":5480,"gyal":5481,"ring":5482,"##días":5483,"##ddy":5484,"##ses":5485,"##bía":5486,"##untos":5487,"inva":5488,"##mate":5489,"andan":5490,"raper":5491,"cagar":5492,"high":5493,"mare":5494,"##yah":5495,"bancos":5496,"only":5497,"adentro":5498,"olvidarte":5499,"supera":5500,"imaginar":5501,"murió":5502,"cigarro":5503,"gala":5504,"##ach":5505,"##erio":5506,"mito":5507,"mire":5508,"une":5509,"##cipe":5510,"porno":5511,"suje":5512,"inti":5513,"##cur":5514,"aroma":5515,"hablen":5516,"volun":5517,"fino":5518,"somb":5519,"hola":5520,"sufro":5521,"pleno":5522,"confiar":5523,"terminar":5524,"jungla":5525,"non":5526,"##uu":5527,"##tándome":5528,"##anti":5529,"##ciles":5530,"quie":5531,"curar":5532,"puedan":5533,"##ándal":5534,"abus":5535,"montón":5536,"líder":5537,"buscaba":5538,"superar":5539,"oscura":5540,"choco":5541,"fieles":5542,"##ufra":5543,"juzgar":5544,"ustedes":5545,"actuar":5546,"durmiendo":5547,"jóvenes":5548,"##lama":5549,"quedé":5550,"laber":5551,"##alu":5552,"##tex":5553,"##iencias":5554,"vibra":5555,"##mado":5556,"pasas":5557,"##lie":5558,"##uesto":5559,"argu":5560,"restos":5561,"suele":5562,"jugue":5563,"dudo":5564,"solu":5565,"olvidan":5566,"cuerdas":5567,"balanza":5568,"elegante":5569,"dirección":5570,"esclavos":5571,"imaginación":5572,"diamante":5573,"dijiste":5574,"instrumental":5575,"carretera":5576,"dream":5577,"ensa":5578,"enfa":5579,"enorme":5580,"##day":5581,"##ley":5582,"##mej":5583,"tirado":5584,"escor":5585,"vean":5586,"macha":5587,"salón":5588,"crey":5589,"peo":5590,"arru":5591,"##tería":5592,"##lano":5593,"resaca":5594,"entiendas":5595,"experto":5596,"virtud":5597,"excusas":5598,"vigila":5599,"industria":5600,"pánico":5601,"fam":5602,"fat":5603,"##into":5604,"##unas":5605,"reino":5606,"desli":5607,"pavo":5608,"##tube":5609,"maneras":5610,"##teros":5611,"dejen":5612,"escriben":5613,"caball":5614,"##ecía":5615,"repro":5616,"lágrima":5617,"recordando":5618,"rendir":5619,"máximo":5620,"tendré":5621,"complejos":5622,"201":5623,"##cracia":5624,"arreglar":5625,"aven":5626,"fuen":5627,"ojeras":5628,"vomi":5629,"éste":5630,"##lación":5631,"sucia":5632,"##vid":5633,"##eles":5634,"perten":5635,"venda":5636,"malgas":5637,"##tancias":5638,"acero":5639,"fila":5640,"hombro":5641,"demasiados":5642,"weed":5643,"ruinas":5644,"testi":5645,"competir":5646,"trucos":5647,"click":5648,"pistola":5649,"serpiente":5650,"ombli":5651,"bui":5652,"hundo":5653,"rama":5654,"##sor":5655,"##teca":5656,"metal":5657,"hamb":5658,"##une":5659,"##apo":5660,"veremos":5661,"nación":5662,"tragos":5663,"moto":5664,"recto":5665,"grados":5666,"home":5667,"cerdo":5668,"guste":5669,"expan":5670,"dani":5671,"puerto":5672,"podré":5673,"quince":5674,"imperio":5675,"significa":5676,"embargo":5677,"contrario":5678,"by":5679,"eco":5680,"mora":5681,"yu":5682,"##mm":5683,"##cci":5684,"##feo":5685,"##tiga":5686,"##cadas":5687,"##dimos":5688,"subiendo":5689,"descui":5690,"night":5691,"matri":5692,"pique":5693,"cante":5694,"prefer":5695,"rival":5696,"volviendo":5697,"cuervos":5698,"puesta":5699,"mueven":5700,"dog":5701,"##tienes":5702,"guardar":5703,"empezó":5704,"podrán":5705,"habita":5706,"disfruto":5707,"suben":5708,"sábanas":5709,"oyes":5710,"triunfar":5711,"barcelona":5712,"people":5713,"ram":5714,"yes":5715,"##ualidad":5716,"##icia":5717,"##gab":5718,"tocando":5719,"mismas":5720,"##velo":5721,"there":5722,"rimo":5723,"empresa":5724,"##guera":5725,"aprendo":5726,"why":5727,"lugares":5728,"enseñó":5729,"convertido":5730,"cabezas":5731,"hospi":5732,"cuchillo":5733,"ox":5734,"yan":5735,"éramos":5736,"##sh":5737,"busc":5738,"abren":5739,"ratos":5740,"##tines":5741,"crimin":5742,"guerrero":5743,"moriré":5744,"cuestion":5745,"gatos":5746,"ponerme":5747,"respons":5748,"observo":5749,"descansar":5750,"sacrificio":5751,"lío":5752,"lava":5753,"mini":5754,"sida":5755,"##lay":5756,"patas":5757,"lej":5758,"##sible":5759,"cate":5760,"arti":5761,"modas":5762,"olvide":5763,"monte":5764,"plano":5765,"sentirte":5766,"engaña":5767,"trampas":5768,"caiga":5769,"azar":5770,"##ire":5771,"##tono":5772,"##osas":5773,"unico":5774,"##colo":5775,"desan":5776,"descal":5777,"cañ":5778,"##ficios":5779,"cancion":5780,"joh":5781,"daría":5782,"morder":5783,"vestido":5784,"autor":5785,"clava":5786,"torre":5787,"viajar":5788,"llenos":5789,"discur":5790,"derecha":5791,"barato":5792,"nombres":5793,"televisión":5794,"bás":5795,"fú":5796,"oficio":5797,"##ile":5798,"##lero":5799,"##gente":5800,"queriendo":5801,"cuén":5802,"pavos":5803,"pasamos":5804,"##mico":5805,"pela":5806,"##tand":5807,"satis":5808,"compon":5809,"pisa":5810,"unidos":5811,"roll":5812,"espaldas":5813,"indifer":5814,"apuesta":5815,"mundi":5816,"ombligo":5817,"vam":5818,"##nal":5819,"##jui":5820,"##capa":5821,"peces":5822,"mode":5823,"cortes":5824,"escritura":5825,"presos":5826,"perderme":5827,"escondo":5828,"arries":5829,"truen":5830,"garito":5831,"correcto":5832,"brindo":5833,"insomnio":5834,"full":5835,"##ian":5836,"##mera":5837,"##fan":5838,"##alas":5839,"vieron":5840,"##vivir":5841,"estamp":5842,"angel":5843,"ardiendo":5844,"prota":5845,"bañ":5846,"busqué":5847,"fina":5848,"complica":5849,"grabar":5850,"capri":5851,"##istades":5852,"escudo":5853,"controla":5854,"juegos":5855,"plástico":5856,"déjalo":5857,"entran":5858,"huellas":5859,"pesadilla":5860,"limpia":5861,"bitches":5862,"feria":5863,"##brir":5864,"cuna":5865,"oli":5866,"pana":5867,"##tró":5868,"##tral":5869,"chor":5870,"publi":5871,"distra":5872,"maría":5873,"falsas":5874,"mejorar":5875,"luto":5876,"##tinas":5877,"tardes":5878,"pinto":5879,"página":5880,"##puta":5881,"observa":5882,"emoción":5883,"declar":5884,"prac":5885,"artistas":5886,"eti":5887,"oir":5888,"obe":5889,"##aman":5890,"viví":5891,"##gados":5892,"cocina":5893,"##tumbre":5894,"caes":5895,"venimos":5896,"ridí":5897,"actú":5898,"barreras":5899,"pensado":5900,"polen":5901,"vestir":5902,"white":5903,"flota":5904,"focos":5905,"##pone":5906,"esconden":5907,"mirarte":5908,"cabron":5909,"entrada":5910,"virgen":5911,"##mático":5912,"zatu":5913,"globo":5914,"tonterías":5915,"autén":5916,"informa":5917,"##ibles":5918,"##teza":5919,"alerta":5920,"tem":5921,"##dica":5922,"paran":5923,"estro":5924,"pagando":5925,"crecido":5926,"marcas":5927,"##umbre":5928,"compor":5929,"cuente":5930,"##dría":5931,"pareja":5932,"deriva":5933,"compadre":5934,"comprendo":5935,"criticar":5936,"profesion":5937,"two":5938,"volvió":5939,"ciento":5940,"hero":5941,"deben":5942,"telé":5943,"rezar":5944,"deste":5945,"aspi":5946,"naci":5947,"creyendo":5948,"nevera":5949,"escuches":5950,"fea":5951,"mueres":5952,"sentirse":5953,"yeh":5954,"escondido":5955,"promesa":5956,"echando":5957,"plena":5958,"##miso":5959,"marihu":5960,"defender":5961,"inteligente":5962,"imagino":5963,"puente":5964,"época":5965,"cám":5966,"sano":5967,"vá":5968,"##ez":5969,"mig":5970,"hate":5971,"##tios":5972,"##amen":5973,"##ónica":5974,"rezo":5975,"misterio":5976,"tengan":5977,"verdes":5978,"salu":5979,"roban":5980,"##tala":5981,"menudo":5982,"hoja":5983,"puestos":5984,"doce":5985,"folla":5986,"aparece":5987,"enciende":5988,"cement":5989,"gasta":5990,"esquinas":5991,"cansé":5992,"trece":5993,"dedicado":5994,"aviso":5995,"veinti":5996,"correspon":5997,"azo":5998,"ré":5999,"##centes":6000,"##vora":6001,"##pí":6002,"detener":6003,"##tivas":6004,"piro":6005,"asal":6006,"marchar":6007,"negar":6008,"valle":6009,"escuche":6010,"currar":6011,"reventar":6012,"extraña":6013,"vacías":6014,"mensajes":6015,"beats":6016,"charco":6017,"nieve":6018,"salvaje":6019,"fantasmas":6020,"ilumina":6021,"moneda":6022,"círculo":6023,"alfom":6024,"13":6025,"ora":6026,"pón":6027,"##rui":6028,"##osos":6029,"pozo":6030,"chin":6031,"peta":6032,"exter":6033,"mul":6034,"david":6035,"abor":6036,"suela":6037,"sacan":6038,"acabas":6039,"presento":6040,"plane":6041,"encontra":6042,"critica":6043,"tranquila":6044,"ilusion":6045,"encanto":6046,"responde":6047,"asusta":6048,"mezcla":6049,"##ppy":6050,"desaho":6051,"estribillo":6052,"ater":6053,"gam":6054,"pablo":6055,"rio":6056,"ín":6057,"ór":6058,"##ebre":6059,"##luen":6060,"##pé":6061,"##ges":6062,"##asy":6063,"##ará":6064,"##cible":6065,"comerte":6066,"##chada":6067,"##dieron":6068,"##quete":6069,"care":6070,"##carte":6071,"durante":6072,"flotando":6073,"brillan":6074,"bibli":6075,"chupar":6076,"abrazar":6077,"adicto":6078,"ataú":6079,"merce":6080,"enteras":6081,"contacto":6082,"traición":6083,"absor":6084,"elige":6085,"rueda":6086,"créeme":6087,"pudiera":6088,"monstruo":6089,"perfume":6090,"atar":6091,"lp":6092,"mr":6093,"pó":6094,"tías":6095,"##mol":6096,"##pren":6097,"siemb":6098,"hagamos":6099,"comes":6100,"toya":6101,"supo":6102,"subes":6103,"rebo":6104,"refer":6105,"##apren":6106,"serlo":6107,"##bierto":6108,"pidas":6109,"##zados":6110,"navidad":6111,"pea":6112,"dejamos":6113,"canas":6114,"decide":6115,"gotas":6116,"consume":6117,"chiqui":6118,"personalidad":6119,"funk":6120,"acabado":6121,"depri":6122,"soportar":6123,"reconocer":6124,"rodeado":6125,"ocasión":6126,"hipocres":6127,"combate":6128,"velas":6129,"edén":6130,"##dáver":6131,"dándole":6132,"##ular":6133,"##mamente":6134,"##gido":6135,"enero":6136,"##ted":6137,"##tela":6138,"##leto":6139,"##deos":6140,"parra":6141,"sabia":6142,"##veje":6143,"##culas":6144,"vendrá":6145,"respal":6146,"date":6147,"dudar":6148,"perderte":6149,"trozos":6150,"gordos":6151,"pelos":6152,"intenso":6153,"convir":6154,"complejo":6155,"intentan":6156,"explota":6157,"viola":6158,"repito":6159,"varias":6160,"físi":6161,"fugaz":6162,"dama":6163,"wi":6164,"##uras":6165,"##umas":6166,"##san":6167,"comentar":6168,"toa":6169,"dign":6170,"inyec":6171,"destin":6172,"amistades":6173,"##pito":6174,"apunto":6175,"cadáver":6176,"##teria":6177,"##cky":6178,"cambios":6179,"presencia":6180,"graffi":6181,"frí":6182,"harán":6183,"fly":6184,"organ":6185,"estupi":6186,"jazz":6187,"trom":6188,"perdidas":6189,"plomo":6190,"##ctiva":6191,"trabajando":6192,"rastro":6193,"fantasía":6194,"##lamo":6195,"apunta":6196,"vecino":6197,"##phone":6198,"párra":6199,"paisaje":6200,"john":6201,"fon":6202,"##mí":6203,"##cent":6204,"##aría":6205,"seco":6206,"haters":6207,"ala":6208,"##abe":6209,"estate":6210,"chiste":6211,"naufra":6212,"llegué":6213,"crecen":6214,"vendiendo":6215,"escriba":6216,"comprom":6217,"jodo":6218,"youtube":6219,"decirme":6220,"mayores":6221,"matarme":6222,"movidas":6223,"odian":6224,"molesta":6225,"trenes":6226,"resistir":6227,"bolsillos":6228,"fingir":6229,"montaña":6230,"detalle":6231,"prohibido":6232,"stay":6233,"bull":6234,"cle":6235,"kase":6236,"nin":6237,"tapa":6238,"##ído":6239,"decían":6240,"notar":6241,"##unt":6242,"rejas":6243,"cubre":6244,"pasen":6245,"sabio":6246,"callado":6247,"vendido":6248,"palma":6249,"empres":6250,"ganando":6251,"pollas":6252,"aguante":6253,"dolores":6254,"escape":6255,"siglo":6256,"cumple":6257,"aprendimos":6258,"consecuencias":6259,"ada":6260,"avar":6261,"even":6262,"gü":6263,"ken":6264,"enveje":6265,"poetas":6266,"sonriendo":6267,"asunto":6268,"##vemos":6269,"##gual":6270,"tragar":6271,"cach":6272,"peores":6273,"liga":6274,"reser":6275,"cambiando":6276,"##venta":6277,"interpre":6278,"claras":6279,"##yeah":6280,"déjate":6281,"fresh":6282,"estudiar":6283,"competición":6284,"retroce":6285,"huracán":6286,"guí":6287,"lana":6288,"wil":6289,"zo":6290,"##dk":6291,"##jé":6292,"##gna":6293,"##ernos":6294,"esni":6295,"latido":6296,"parano":6297,"sudar":6298,"estor":6299,"tiri":6300,"##trui":6301,"pedí":6302,"tho":6303,"litro":6304,"falle":6305,"fiestas":6306,"dejaron":6307,"preguntar":6308,"jaula":6309,"medida":6310,"bragas":6311,"distinta":6312,"absol":6313,"conseguido":6314,"producto":6315,"sensaciones":6316,"críos":6317,"materia":6318,"conformo":6319,"amenaza":6320,"noticias":6321,"duelen":6322,"campeón":6323,"motherfuck":6324,"jur":6325,"##lá":6326,"##pien":6327,"##flow":6328,"##gras":6329,"deca":6330,"enre":6331,"tela":6332,"temer":6333,"quitan":6334,"##dias":6335,"tocado":6336,"retras":6337,"##ust":6338,"nido":6339,"manz":6340,"##rantes":6341,"habéis":6342,"canal":6343,"hacerse":6344,"##darme":6345,"sacando":6346,"##venir":6347,"graba":6348,"prín":6349,"importancia":6350,"criterio":6351,"lápiz":6352,"toro":6353,"javi":6354,"distintos":6355,"frena":6356,"hierro":6357,"comienza":6358,"avión":6359,"desprecio":6360,"eternidad":6361,"##self":6362,"episo":6363,"eje":6364,"hel":6365,"##han":6366,"##teles":6367,"div":6368,"insi":6369,"tipos":6370,"pausa":6371,"vera":6372,"verla":6373,"mago":6374,"nah":6375,"hea":6376,"crean":6377,"creciendo":6378,"##uelos":6379,"resol":6380,"disci":6381,"mudo":6382,"recon":6383,"##ulando":6384,"compis":6385,"##chez":6386,"herido":6387,"escuchen":6388,"piense":6389,"llamado":6390,"bestia":6391,"trin":6392,"señores":6393,"convierto":6394,"alcanza":6395,"además":6396,"doler":6397,"preparado":6398,"hallar":6399,"desapare":6400,"recur":6401,"aseguro":6402,"súbe":6403,"democracia":6404,"apetece":6405,"hui":6406,"##mero":6407,"##jen":6408,"dela":6409,"devor":6410,"deudas":6411,"lamentos":6412,"##tamente":6413,"##cista":6414,"peri":6415,"pastel":6416,"##vela":6417,"##quiz":6418,"##tuve":6419,"##sed":6420,"##teno":6421,"neur":6422,"coraje":6423,"ficción":6424,"grabo":6425,"terra":6426,"superior":6427,"segura":6428,"aceras":6429,"enamora":6430,"despedida":6431,"##quía":6432,"hábi":6433,"vecinos":6434,"imbé":6435,"voluntad":6436,"teléfono":6437,"fen":6438,"kan":6439,"rien":6440,"vul":6441,"ánimo":6442,"##kor":6443,"noble":6444,"sele":6445,"alla":6446,"común":6447,"supongo":6448,"estú":6449,"estaban":6450,"##uchos":6451,"saludo":6452,"##tulo":6453,"llegando":6454,"pene":6455,"prejui":6456,"motiva":6457,"better":6458,"##roso":6459,"folios":6460,"cruda":6461,"escupiendo":6462,"defien":6463,"mind":6464,"mentalidad":6465,"ofrecer":6466,"política":6467,"cobardes":6468,"comienzo":6469,"absurdo":6470,"filosofía":6471,"intimi":6472,"atro":6473,"gén":6474,"ko":6475,"océ":6476,"spi":6477,"sana":6478,"zom":6479,"##aah":6480,"##mones":6481,"##vada":6482,"##joy":6483,"##ance":6484,"local":6485,"lobos":6486,"##dete":6487,"inm":6488,"tier":6489,"maquetas":6490,"saliendo":6491,"vagab":6492,"cif":6493,"litros":6494,"##pados":6495,"casas":6496,"sacas":6497,"cerdos":6498,"parezco":6499,"##gracias":6500,"huye":6501,"confío":6502,"tortura":6503,"sufriendo":6504,"viajes":6505,"máqui":6506,"grupos":6507,"llevamos":6508,"flaco":6509,"caído":6510,"ríe":6511,"pájaro":6512,"epi":6513,"ill":6514,"joy":6515,"##rones":6516,"##dran":6517,"##dano":6518,"##cro":6519,"##cías":6520,"##jera":6521,"unión":6522,"##timo":6523,"##inado":6524,"##undan":6525,"inna":6526,"invisible":6527,"patria":6528,"##vida":6529,"escalo":6530,"##lida":6531,"nació":6532,"casualidad":6533,"false":6534,"##talos":6535,"##ólogo":6536,"solucion":6537,"olvidas":6538,"frías":6539,"pesado":6540,"constancia":6541,"ofen":6542,"respetar":6543,"apagar":6544,"mayoría":6545,"fantasma":6546,"clima":6547,"caída":6548,"pájaros":6549,"##clip":6550,"milagro":6551,"ile":6552,"úni":6553,"##embre":6554,"##dales":6555,"##ik":6556,"##izar":6557,"##pá":6558,"##asis":6559,"##anta":6560,"##tete":6561,"misa":6562,"made":6563,"coti":6564,"publico":6565,"progra":6566,"corren":6567,"gangs":6568,"dosis":6569,"carajo":6570,"amarga":6571,"mágico":6572,"esfera":6573,"pesadillas":6574,"nariz":6575,"reconozco":6576,"estudios":6577,"regreso":6578,"increí":6579,"chungo":6580,"ces":6581,"cro":6582,"ouh":6583,"##cun":6584,"##tto":6585,"##sura":6586,"##rao":6587,"teme":6588,"incen":6589,"pais":6590,"anali":6591,"##lidos":6592,"could":6593,"chándal":6594,"cajas":6595,"cita":6596,"light":6597,"marte":6598,"moder":6599,"rotas":6600,"dais":6601,"dados":6602,"costumbre":6603,"daré":6604,"parezca":6605,"llames":6606,"##aladas":6607,"intentas":6608,"interna":6609,"cruces":6610,"niebla":6611,"inocente":6612,"practi":6613,"solitario":6614,"secues":6615,"recompen":6616,"apuñ":6617,"laberinto":6618,"marihuana":6619,"lé":6620,"té":6621,"##eh":6622,"##ms":6623,"dele":6624,"##estes":6625,"mientes":6626,"pacto":6627,"##lia":6628,"##ficado":6629,"busque":6630,"roja":6631,"falto":6632,"body":6633,"##llate":6634,"duras":6635,"homie":6636,"##dremos":6637,"##llón":6638,"soñé":6639,"líos":6640,"gorda":6641,"enfada":6642,"refleja":6643,"dramas":6644,"peleas":6645,"conocerme":6646,"persigo":6647,"desaparecer":6648,"bosque":6649,"quan":6650,"through":6651,"dignidad":6652,"afer":6653,"bum":6654,"dó":6655,"mero":6656,"##au":6657,"##geno":6658,"devolver":6659,"logro":6660,"tol":6661,"pararme":6662,"reli":6663,"estra":6664,"##bias":6665,"pides":6666,"pillas":6667,"cop":6668,"codi":6669,"##rasa":6670,"##gular":6671,"vací":6672,"##uestos":6673,"cacho":6674,"pep":6675,"habría":6676,"marion":6677,"pongan":6678,"escribes":6679,"decidí":6680,"##itando":6681,"aguas":6682,"doctor":6683,"andalu":6684,"preguntes":6685,"tatu":6686,"bolí":6687,"comercial":6688,"pelear":6689,"conversa":6690,"alcance":6691,"burbu":6692,"imaginas":6693,"pantalla":6694,"supieras":6695,"payaso":6696,"ciclo":6697,"fútbol":6698,"manzana":6699,"ger":6700,"kin":6701,"ocho":6702,"##zen":6703,"##cla":6704,"##cuer":6705,"##ére":6706,"##pis":6707,"##ken":6708,"##enos":6709,"conce":6710,"rell":6711,"tiras":6712,"serie":6713,"ascen":6714,"vago":6715,"vaca":6716,"trafi":6717,"calen":6718,"pedo":6719,"vencido":6720,"prob":6721,"little":6722,"impo":6723,"place":6724,"primeros":6725,"dinami":6726,"consumo":6727,"tatua":6728,"tregua":6729,"tendrá":6730,"expresión":6731,"franco":6732,"muestro":6733,"honesto":6734,"skill":6735,"think":6736,"ataúd":6737,"12":6738,"fyah":6739,"win":6740,"##nel":6741,"##har":6742,"##fón":6743,"##ork":6744,"silla":6745,"tiros":6746,"pagas":6747,"##viar":6748,"lecciones":6749,"pasaba":6750,"ameri":6751,"pij":6752,"nadar":6753,"cayó":6754,"cantan":6755,"necio":6756,"ganan":6757,"esperaba":6758,"fake":6759,"##gió":6760,"clara":6761,"encontrado":6762,"bici":6763,"entienda":6764,"pelis":6765,"duermen":6766,"mercado":6767,"completo":6768,"universal":6769,"dímelo":6770,"recuper":6771,"##plina":6772,"##viene":6773,"métrica":6774,"freestyle":6775,"angustia":6776,"película":6777,"precipicio":6778,"miguel":6779,"ak":6780,"atado":6781,"name":6782,"##mán":6783,"##ws":6784,"miren":6785,"metros":6786,"##unta":6787,"compara":6788,"quieto":6789,"tocas":6790,"retra":6791,"cobrar":6792,"##ciado":6793,"cielos":6794,"dejame":6795,"martes":6796,"escrita":6797,"luci":6798,"talla":6799,"bastar":6800,"micros":6801,"fueran":6802,"rompen":6803,"balcón":6804,"true":6805,"profun":6806,"salimos":6807,"block":6808,"divertido":6809,"##umir":6810,"serpientes":6811,"sirenas":6812,"llévame":6813,"gilipollas":6814,"30":6815,"blas":6816,"fis":6817,"##ude":6818,"##nunca":6819,"##brando":6820,"##algo":6821,"mide":6822,"##chón":6823,"quis":6824,"tocan":6825,"culos":6826,"desh":6827,"madres":6828,"camisa":6829,"creando":6830,"impre":6831,"decidir":6832,"inspi":6833,"cuerdo":6834,"muertas":6835,"hipó":6836,"perdiste":6837,"confli":6838,"quedaron":6839,"tempo":6840,"borrachos":6841,"encontrarme":6842,"##táculo":6843,"agarro":6844,"crazy":6845,"celebrar":6846,"hueso":6847,"famoso":6848,"hospital":6849,"alfombra":6850,"bá":6851,"nas":6852,"zar":6853,"##cala":6854,"##él":6855,"##ft":6856,"##jin":6857,"seamos":6858,"hach":6859,"soña":6860,"mach":6861,"pode":6862,"chill":6863,"##quita":6864,"##quista":6865,"hash":6866,"mías":6867,"moviendo":6868,"cose":6869,"ganja":6870,"nueve":6871,"mongo":6872,"vistas":6873,"pasará":6874,"tonta":6875,"lírica":6876,"bailo":6877,"aparentar":6878,"humana":6879,"familias":6880,"fuckin":6881,"firma":6882,"intención":6883,"subn":6884,"recibir":6885,"persigue":6886,"##glés":6887,"tablas":6888,"impacto":6889,"semilla":6890,"rebaño":6891,"hen":6892,"wat":6893,"##iada":6894,"##cones":6895,"deten":6896,"##oras":6897,"##algun":6898,"simi":6899,"had":6900,"##laga":6901,"inta":6902,"inerte":6903,"##gao":6904,"estable":6905,"pica":6906,"pilas":6907,"propa":6908,"pendientes":6909,"recreo":6910,"aclar":6911,"hot":6912,"##etí":6913,"aleja":6914,"escupe":6915,"funda":6916,"tropie":6917,"buscarme":6918,"esquivo":6919,"ataque":6920,"norma":6921,"niñato":6922,"hundir":6923,"conocemos":6924,"ajeno":6925,"maripos":6926,"condición":6927,"espiral":6928,"mentales":6929,"tronco":6930,"melancol":6931,"escupir":6932,"gestos":6933,"oto":6934,"pás":6935,"style":6936,"##bum":6937,"##enci":6938,"##ore":6939,"seca":6940,"##ise":6941,"estóma":6942,"deso":6943,"macar":6944,"##pies":6945,"salve":6946,"salidas":6947,"head":6948,"hechi":6949,"rapers":6950,"traer":6951,"cajón":6952,"finales":6953,"judas":6954,"insta":6955,"dob":6956,"enseñan":6957,"odias":6958,"sobras":6959,"oculto":6960,"ángeles":6961,"oyen":6962,"próximo":6963,"conquistar":6964,"raíces":6965,"héroes":6966,"fuente":6967,"air":6968,"away":6969,"##mé":6970,"##ueve":6971,"alza":6972,"##ónimo":6973,"suma":6974,"inglés":6975,"desgas":6976,"ana":6977,"##pia":6978,"buscado":6979,"escribi":6980,"decisiones":6981,"quedamos":6982,"sín":6983,"best":6984,"rompiendo":6985,"aires":6986,"curvas":6987,"musas":6988,"valorar":6989,"derechos":6990,"cicatriz":6991,"prosa":6992,"ultima":6993,"##ways":6994,"multip":6995,"speed":6996,"hacéis":6997,"mundial":6998,"hipocresía":6999,"comentarios":7000,"adap":7001,"dá":7002,"eno":7003,"sumer":7004,"##usto":7005,"##bie":7006,"##piros":7007,"camp":7008,"##mites":7009,"exceso":7010,"mota":7011,"##guiendo":7012,"botas":7013,"compr":7014,"fire":7015,"visi":7016,"aprendiendo":7017,"pasao":7018,"confía":7019,"influen":7020,"nuca":7021,"bucle":7022,"existo":7023,"domina":7024,"niego":7025,"convencer":7026,"profesor":7027,"disfraz":7028,"nene":7029,"danceh":7030,"desorden":7031,"cent":7032,"fel":7033,"ove":7034,"spa":7035,"##ught":7036,"##jam":7037,"##gle":7038,"##dom":7039,"seman":7040,"##tira":7041,"##titud":7042,"reir":7043,"dirá":7044,"pañ":7045,"amé":7046,"cobre":7047,"salas":7048,"carm":7049,"##ped":7050,"##darte":7051,"priva":7052,"menor":7053,"estaría":7054,"soltando":7055,"cerrado":7056,"certeza":7057,"gustas":7058,"irre":7059,"flote":7060,"pisando":7061,"mañanas":7062,"capullo":7063,"cry":7064,"guitar":7065,"reflex":7066,"consigue":7067,"tendría":7068,"quisieron":7069,"vacilar":7070,"repite":7071,"acostumbrado":7072,"jordan":7073,"anoche":7074,"apostar":7075,"frustra":7076,"criminal":7077,"ais":7078,"atas":7079,"dorm":7080,"efí":7081,"gent":7082,"pris":7083,"ramas":7084,"utop":7085,"##ear":7086,"##gran":7087,"##gaba":7088,"lady":7089,"##alan":7090,"sepan":7091,"##rimi":7092,"##ricas":7093,"alber":7094,"mister":7095,"veré":7096,"verdu":7097,"carlos":7098,"calada":7099,"##veras":7100,"mínimo":7101,"##less":7102,"jodas":7103,"montar":7104,"terap":7105,"ningun":7106,"bolos":7107,"espej":7108,"millon":7109,"virus":7110,"compañero":7111,"positivo":7112,"frontera":7113,"culpables":7114,"tuvimos":7115,"bambas":7116,"##áctica":7117,"##escribo":7118,"around":7119,"cámara":7120,"disciplina":7121,"melancolía":7122,"ído":7123,"##iona":7124,"##jones":7125,"debi":7126,"detes":7127,"comi":7128,"##queros":7129,"rega":7130,"anto":7131,"espar":7132,"resur":7133,"dañ":7134,"impon":7135,"##cons":7136,"##amelo":7137,"said":7138,"##uría":7139,"jodiendo":7140,"homies":7141,"voca":7142,"cómp":7143,"aquellas":7144,"obras":7145,"decirle":7146,"follando":7147,"dueños":7148,"confes":7149,"advi":7150,"gigante":7151,"bombos":7152,"sufrido":7153,"hazte":7154,"farsa":7155,"lenguas":7156,"molestar":7157,"rumba":7158,"admira":7159,"ocaso":7160,"palacio":7161,"proyecto":7162,"oreja":7163,"afrontar":7164,"walk":7165,"anhelo":7166,"soluciones":7167,"vomitar":7168,"príncipe":7169,"bolígrafo":7170,"##reros":7171,"##iles":7172,"##fera":7173,"##jame":7174,"lazos":7175,"##tear":7176,"tea":7177,"coman":7178,"desqui":7179,"pajar":7180,"##vió":7181,"leal":7182,"leche":7183,"camello":7184,"chil":7185,"##vete":7186,"peter":7187,"##rista":7188,"ponle":7189,"jodida":7190,"decides":7191,"hoguera":7192,"gramo":7193,"cuernos":7194,"soñaba":7195,"torpe":7196,"fango":7197,"asimi":7198,"viajo":7199,"medicina":7200,"atrapado":7201,"genera":7202,"amantes":7203,"prendo":7204,"azu":7205,"gallo":7206,"turno":7207,"engancha":7208,"murm":7209,"espiritu":7210,"facturas":7211,"identidad":7212,"shorty":7213,"cementerio":7214,"aka":7215,"fué":7216,"kie":7217,"pino":7218,"uñas":7219,"##pame":7220,"##we":7221,"always":7222,"quiére":7223,"##dillo":7224,"diab":7225,"estén":7226,"infec":7227,"patio":7228,"lema":7229,"pastillas":7230,"##guí":7231,"vacio":7232,"vendrán":7233,"master":7234,"##caron":7235,"daños":7236,"acciones":7237,"##duras":7238,"explos":7239,"intente":7240,"fluir":7241,"trance":7242,"recorrer":7243,"aparta":7244,"joderme":7245,"acabará":7246,"define":7247,"comparto":7248,"censura":7249,"llevó":7250,"frecuen":7251,"intentarlo":7252,"frank":7253,"siguiendo":7254,"##iness":7255,"cuero":7256,"diamantes":7257,"inteligencia":7258,"dificil":7259,"24":7260,"90":7261,"jos":7262,"our":7263,"pom":7264,"scra":7265,"##atra":7266,"##tun":7267,"##st":7268,"##gni":7269,"##ram":7270,"sobres":7271,"##inan":7272,"sudan":7273,"cumbre":7274,"inh":7275,"##vive":7276,"versión":7277,"pijo":7278,"##quido":7279,"pur":7280,"pure":7281,"manta":7282,"armon":7283,"míni":7284,"escritos":7285,"escritor":7286,"pali":7287,"fieras":7288,"morena":7289,"volverás":7290,"iron":7291,"decirlo":7292,"consum":7293,"##eth":7294,"foll":7295,"alegre":7296,"giro":7297,"demasiadas":7298,"arreba":7299,"cansan":7300,"amanece":7301,"pelotas":7302,"preocupes":7303,"acepto":7304,"##hhh":7305,"oculta":7306,"agarra":7307,"ocurre":7308,"resuci":7309,"squ":7310,"##mental":7311,"##jamos":7312,"detras":7313,"elim":7314,"sigan":7315,"conj":7316,"##tiles":7317,"alli":7318,"##laba":7319,"##ónico":7320,"escom":7321,"pasion":7322,"asfi":7323,"apel":7324,"trazo":7325,"pegas":7326,"proceso":7327,"pregún":7328,"cordura":7329,"##rarte":7330,"##you":7331,"olvidé":7332,"importar":7333,"cruza":7334,"triple":7335,"despido":7336,"equipa":7337,"revienta":7338,"seguridad":7339,"defini":7340,"esquivando":7341,"agres":7342,"listen":7343,"equivocado":7344,"dollar":7345,"cocaína":7346,"descub":7347,"escalera":7348,"arrepentir":7349,"obsesión":7350,"gustaría":7351,"técnica":7352,"chocolate":7353,"escoria":7354,"dancehall":7355,"bwoy":7356,"hur":7357,"prisas":7358,"york":7359,"##ac":7360,"##sólo":7361,"##bur":7362,"queman":7363,"##ons":7364,"mech":7365,"##tible":7366,"quite":7367,"##vido":7368,"leg":7369,"perci":7370,"mati":7371,"anci":7372,"callan":7373,"calmar":7374,"##teres":7375,"rimando":7376,"sueñan":7377,"##jadas":7378,"caben":7379,"bebé":7380,"dudes":7381,"house":7382,"cuentes":7383,"sangra":7384,"really":7385,"vasos":7386,"fecha":7387,"harás":7388,"dobla":7389,"hands":7390,"blancas":7391,"señales":7392,"tempor":7393,"málaga":7394,"bloques":7395,"kilo":7396,"abandona":7397,"violento":7398,"expresar":7399,"ausente":7400,"boys":7401,"desespera":7402,"##puedo":7403,"demuestra":7404,"himno":7405,"hermosa":7406,"poemas":7407,"contenido":7408,"ladrón":7409,"ingenio":7410,"enloquecer":7411,"testigos":7412,"cera":7413,"kar":7414,"lás":7415,"yendo":7416,"##vé":7417,"noc":7418,"##rap":7419,"##cieron":7420,"comb":7421,"##dita":7422,"toc":7423,"##trarte":7424,"##elas":7425,"asiento":7426,"espanto":7427,"rapea":7428,"male":7429,"negras":7430,"hood":7431,"llamarme":7432,"importe":7433,"mueves":7434,"llore":7435,"tarima":7436,"chiva":7437,"confus":7438,"función":7439,"quedará":7440,"tíos":7441,"ataca":7442,"perdóname":7443,"pulmones":7444,"tormento":7445,"descansa":7446,"descubrir":7447,"barriga":7448,"elegí":7449,"resultado":7450,"puñaladas":7451,"abandonar":7452,"aveces":7453,"cueva":7454,"vinilo":7455,"desconocido":7456,"lord":7457,"inquie":7458,"temblar":7459,"patrón":7460,"estallar":7461,"transforma":7462,"escúchame":7463,"calendario":7464,"hipócri":7465,"bin":7466,"hala":7467,"ofer":7468,"tun":7469,"ál":7470,"##mano":7471,"##ast":7472,"latir":7473,"mean":7474,"metá":7475,"sigas":7476,"##lez":7477,"##let":7478,"parís":7479,"desvan":7480,"legado":7481,"##ándonos":7482,"caramelo":7483,"pegan":7484,"extran":7485,"##pate":7486,"masas":7487,"martin":7488,"##traste":7489,"suspen":7490,"radi":7491,"##canos":7492,"old":7493,"sentimos":7494,"parecido":7495,"planta":7496,"muerdo":7497,"irán":7498,"sense":7499,"despier":7500,"propias":7501,"sirven":7502,"frenos":7503,"eyes":7504,"decías":7505,"criticas":7506,"avisa":7507,"negocios":7508,"sinceridad":7509,"desesper":7510,"agonía":7511,"desayuno":7512,"armario":7513,"ari":7514,"cú":7515,"cres":7516,"dri":7517,"renta":7518,"##vy":7519,"##ot":7520,"##somos":7521,"##ética":7522,"##bón":7523,"nom":7524,"meten":7525,"altar":7526,"legen":7527,"escul":7528,"macho":7529,"estación":7530,"chap":7531,"##quieren":7532,"cargar":7533,"traga":7534,"cadu":7535,"creado":7536,"excep":7537,"tienda":7538,"formar":7539,"jota":7540,"diosa":7541,"sígue":7542,"lloras":7543,"talk":7544,"##ésame":7545,"román":7546,"once":7547,"sendero":7548,"##cioso":7549,"apariencia":7550,"gasol":7551,"##éndole":7552,"enseñaron":7553,"represent":7554,"ventanas":7555,"supli":7556,"ofrece":7557,"feeling":7558,"cuidao":7559,"copia":7560,"change":7561,"everything":7562,"apuesto":7563,"próxima":7564,"poema":7565,"acelera":7566,"progreso":7567,"pupilas":7568,"compromiso":7569,"resolver":7570,"estómago":7571,"ul":7572,"##sando":7573,"##pó":7574,"##tiemp":7575,"##amento":7576,"telón":7577,"combo":7578,"young":7579,"tot":7580,"toy":7581,"desin":7582,"desgar":7583,"##vile":7584,"tanga":7585,"manada":7586,"creces":7587,"peca":7588,"licor":7589,"move":7590,"##idades":7591,"valora":7592,"gane":7593,"graves":7594,"institu":7595,"irse":7596,"besa":7597,"##trico":7598,"##llando":7599,"pasaron":7600,"llegará":7601,"bolas":7602,"propios":7603,"quedarse":7604,"##hace":7605,"abraza":7606,"enfado":7607,"favorito":7608,"rasta":7609,"llegamos":7610,"charla":7611,"##mática":7612,"soporto":7613,"tumbado":7614,"derrotas":7615,"castillo":7616,"triunfo":7617,"puñal":7618,"raíz":7619,"trayectoria":7620,"hambri":7621,"avaricia":7622,"quisiste":7623,"gay":7624,"hondo":7625,"kon":7626,"##bana":7627,"defecto":7628,"queme":7629,"lav":7630,"chal":7631,"cimientos":7632,"live":7633,"buscamos":7634,"bienes":7635,"corrom":7636,"impide":7637,"prision":7638,"bebida":7639,"valga":7640,"##chael":7641,"obvio":7642,"muerde":7643,"##gicos":7644,"pistas":7645,"##tiende":7646,"repu":7647,"cría":7648,"tony":7649,"encuentran":7650,"bailan":7651,"coleccion":7652,"curso":7653,"mirarme":7654,"merecen":7655,"##hacer":7656,"juegas":7657,"defiendo":7658,"comprende":7659,"lanzar":7660,"adelan":7661,"cheque":7662,"encontrarte":7663,"ceniza":7664,"##aporque":7665,"please":7666,"rango":7667,"lentamente":7668,"refugio":7669,"dirty":7670,"kilóme":7671,"concepto":7672,"aconse":7673,"prejuicios":7674,"vacaciones":7675,"40":7676,"dal":7677,"rara":7678,"noventa":7679,"seda":7680,"portada":7681,"parecía":7682,"ine":7683,"inú":7684,"levi":7685,"escala":7686,"perfil":7687,"andas":7688,"##veo":7689,"apesta":7690,"cay":7691,"##noti":7692,"lig":7693,"##renal":7694,"bah":7695,"baje":7696,"resiste":7697,"modos":7698,"barna":7699,"rafa":7700,"soldados":7701,"##ándola":7702,"querían":7703,"orgas":7704,"bicho":7705,"bondad":7706,"pusi":7707,"reflexi":7708,"prefieres":7709,"prende":7710,"ahogar":7711,"transmi":7712,"sonreir":7713,"altavo":7714,"cállate":7715,"montañas":7716,"condiciones":7717,"numero":7718,"camiseta":7719,"satisfa":7720,"increíble":7721,"utopía":7722}}}